{
  "version": "1.0",
  "truncation": null,
  "padding": null,
  "added_tokens": [
    {
      "id": 0,
      "content": "<s>",
      "single_word": false,
      "lstrip": false,
      "rstrip": false,
      "normalized": false,
      "special": true
    },
    {
      "id": 1,
      "content": "<pad>",
      "single_word": false,
      "lstrip": false,
      "rstrip": false,
      "normalized": false,
      "special": true
    },
    {
      "id": 2,
      "content": "</s>",
      "single_word": false,
      "lstrip": false,
      "rstrip": false,
      "normalized": false,
      "special": true
    },
    {
      "id": 3,
      "content": "<unk>",
      "single_word": false,
      "lstrip": false,
      "rstrip": false,
      "normalized": false,
      "special": true
    },
    {
      "id": 4,
      "content": "<mask>",
      "single_word": false,
      "lstrip": true,
      "rstrip": false,
      "normalized": false,
      "special": true
    }
  ],
  "normalizer": {
    "type": "Sequence",
    "normalizers": [
      {
        "type": "Strip",
        "strip_left": false,
        "strip_right": true
      },
      {
        "type": "Replace",
        "pattern": {
          "String": " {2,}"
        },
        "content": "▁"
      }
    ]
  },
  "pre_tokenizer": {
    "type": "Sequence",
    "pretokenizers": [
      {
        "type": "WhitespaceSplit"
      },
      {
        "type": "Metaspace",
        "replacement": "▁",
        "prepend_scheme": "always",
        "split": true
      }
    ]
  },
  "post_processor": {
    "type": "TemplateProcessing",
    "single": [
      {
        "SpecialToken": {
          "id": "<s>",
          "type_id": 0
        }
      },
      {
        "Sequence": {
          "id": "A",
          "type_id": 0
        }
      },
      {
        "SpecialToken": {
          "id": "</s>",
          "type_id": 0
        }
      }
    ],
    "pair": [
      {
        "SpecialToken": {
          "id": "<s>",
          "type_id": 0
        }
      },
      {
        "Sequence": {
          "id": "A",
          "type_id": 0
        }
      },
      {
        "SpecialToken": {
          "id": "</s>",
          "type_id": 0
        }
      },
      {
        "Sequence": {
          "id": "B",
          "type_id": 0
        }
      },
      {
        "SpecialToken": {
          "id": "</s>",
          "type_id": 0
        }
      }
    ],
    "special_tokens": {
      "</s>": {
        "id": "</s>",
        "ids": [
          2
        ],
        "tokens": [
          "</s>"
        ]
      },
      "<s>": {
        "id": "<s>",
        "ids": [
          0
        ],
        "tokens": [
          "<s>"
        ]
      }
    }
  },
  "decoder": {
    "type": "Metaspace",
    "replacement": "▁",
    "prepend_scheme": "always",
    "split": true
  },
  "model": {
    "type": "Unigram",
    "unk_id": 3,
    "vocab": [
      [
        "<s>",
        0.0
      ],
      [
        "<pad>",
        0.0
      ],
      [
        "</s>",
        0.0
      ],
      [
        "<unk>",
        0.0
      ],
      [
        "<mask>",
        0.0
      ],
      [
        "▁",
        -2.7938475970789796
      ],
      [
        "ን",
        -3.683447386945419
      ],
      [
        "።",
        -4.04033821995653
      ],
      [
        "ና",
        -4.2134036650455275
      ],
      [
        "ም",
        -4.273571834937302
      ],
      [
        "፣",
        -4.565706219491872
      ],
      [
        "▁የ",
        -4.617169685882791
      ],
      [
        "▁በ",
        -4.733819659466043
      ],
      [
        "ው",
        -4.952104830828583
      ],
      [
        "▁ነው",
        -5.002927225285321
      ],
      [
        "ት",
        -5.011620358423274
      ],
      [
        "▁ላይ",
        -5.05824350294057
      ],
      [
        "▁ከ",
        -5.164051625601978
      ],
      [
        "▁እና",
        -5.267022785607049
      ],
      [
        "▁፡፡",
        -5.370161932082427
      ],
      [
        "▁ለ",
        -5.516830077350535
      ],
      [
        "▁ውስጥ",
        -5.765417463495531
      ],
      [
        "▁ወደ",
        -5.77141102757731
      ],
      [
        "ስ",
        -5.778517556578047
      ],
      [
        "፡፡",
        -5.779174703288179
      ],
      [
        ".",
        -5.833225207026411
      ],
      [
        "ል",
        -5.850542457737795
      ],
      [
        "፤",
        -5.8581873297768094
      ],
      [
        "በት",
        -5.972041881701257
      ],
      [
        "▁ጋር",
        -6.001219465695376
      ],
      [
        "▁እንደ",
        -6.026640641613188
      ],
      [
        "▁ግን",
        -6.092207155800146
      ],
      [
        "▁ጊዜ",
        -6.147862860779846
      ],
      [
        "▁የሚ",
        -6.151102278353273
      ],
      [
        "▁?",
        -6.209994050566227
      ],
      [
        ")",
        -6.219860539284237
      ],
      [
        "▁ነገር",
        -6.31153344703551
      ],
      [
        "በ",
        -6.325257376044652
      ],
      [
        "ይ",
        -6.332080018526428
      ],
      [
        "▁አንድ",
        -6.339086357968963
      ],
      [
        "▁፤",
        -6.348088800623012
      ],
      [
        "ህ",
        -6.361140652481858
      ],
      [
        "ማ",
        -6.38609895556244
      ],
      [
        "ር",
        -6.405210410350884
      ],
      [
        "”",
        -6.440919369031105
      ],
      [
        "▁ሲ",
        -6.455149439455546
      ],
      [
        "▁ነበር",
        -6.46750256492389
      ],
      [
        "▁ደግሞ",
        -6.491380665455992
      ],
      [
        "የ",
        -6.531390751920354
      ],
      [
        "ነት",
        -6.545181673067491
      ],
      [
        "▁ይህ",
        -6.54722796192576
      ],
      [
        "▁አ",
        -6.54979232474499
      ],
      [
        "▁ቤት",
        -6.55426388992106
      ],
      [
        "▁ሰው",
        -6.558884550755872
      ],
      [
        "ብ",
        -6.583076136130462
      ],
      [
        "▁ብቻ",
        -6.585441251495535
      ],
      [
        "!",
        -6.5928821011660315
      ],
      [
        "ዎች",
        -6.602191566928836
      ],
      [
        "ለ",
        -6.617891986929244
      ],
      [
        "▁መ",
        -6.639286769442236
      ],
      [
        "▁ሰዎች",
        -6.658780576204052
      ],
      [
        "▁(",
        -6.675135817024701
      ],
      [
        "ላ",
        -6.681287146280473
      ],
      [
        "▁ምን",
        -6.687845860338573
      ],
      [
        "▁ያ",
        -6.697030376559898
      ],
      [
        "▁ወይም",
        -6.718620084139584
      ],
      [
        "▁ስለ",
        -6.7263226958415405
      ],
      [
        "ውን",
        -6.7278657717185855
      ],
      [
        "▁ተ",
        -6.728188520999678
      ],
      [
        "ድ",
        -6.730364565808934
      ],
      [
        "ች",
        -6.733821496695086
      ],
      [
        "ታ",
        -6.749404984385871
      ],
      [
        "▁ሁሉ",
        -6.753945294173688
      ],
      [
        "ክ",
        -6.7818069687293505
      ],
      [
        "▁ነው።",
        -6.790167457750812
      ],
      [
        "ያ",
        -6.7978150107820685
      ],
      [
        "▁እንዲ",
        -6.798155551074226
      ],
      [
        "▁ሊ",
        -6.819740780168033
      ],
      [
        "▁ነው፡፡",
        -6.831503748402627
      ],
      [
        "ዋ",
        -6.838309173329915
      ],
      [
        "▁አቶ",
        -6.8453027986906125
      ],
      [
        "ሽ",
        -6.849899079925088
      ],
      [
        "ከ",
        -6.862269343026853
      ],
      [
        "▁ቀን",
        -6.866626689448465
      ],
      [
        "▁“",
        -6.887592898775932
      ],
      [
        "ተ",
        -6.891553346869097
      ],
      [
        "▁በኋላ",
        -6.894701059319919
      ],
      [
        "፡",
        -6.901640801988034
      ],
      [
        "▁ያለው",
        -6.913769580128687
      ],
      [
        "▁በዚህ",
        -6.9144907506725914
      ],
      [
        "ዉ",
        -6.92603718506694
      ],
      [
        "▁የኢትዮጵያ",
        -6.938178736413997
      ],
      [
        "▁በላይ",
        -6.939760033816526
      ],
      [
        ",",
        -6.941434920416423
      ],
      [
        "ባ",
        -6.953152805138755
      ],
      [
        "ሳ",
        -6.9633848772741835
      ],
      [
        "ነ",
        -6.971166580317254
      ],
      [
        "ግ",
        -7.00013339497958
      ],
      [
        "ሰ",
        -7.005294815350322
      ],
      [
        "▁ሁኔታ",
        -7.015216030317893
      ],
      [
        "▁አሁን",
        -7.016379585525993
      ],
      [
        "▁ኢትዮጵያ",
        -7.018860111290495
      ],
      [
        "መ",
        -7.022541661472003
      ],
      [
        "ቱ",
        -7.027348879106883
      ],
      [
        "▁የተ",
        -7.030650367401458
      ],
      [
        "▁አበባ",
        -7.034228581413203
      ],
      [
        "▁አይ",
        -7.042745351475734
      ],
      [
        "ኝ",
        -7.04700935691276
      ],
      [
        "▁እየ",
        -7.0569272542032575
      ],
      [
        "▁ብዙ",
        -7.059591809292639
      ],
      [
        "-",
        -7.066455877115249
      ],
      [
        "አ",
        -7.074726087046084
      ],
      [
        "▁ጉዳይ",
        -7.094021538656111
      ],
      [
        "▁እስከ",
        -7.09545029547138
      ],
      [
        "▁ከተማ",
        -7.096329705434034
      ],
      [
        "▁መንገድ",
        -7.100898334214451
      ],
      [
        "▁አዲስ",
        -7.103998083975739
      ],
      [
        "ራ",
        -7.118684977878862
      ],
      [
        "▁መሆኑን",
        -7.1189594227321145
      ],
      [
        "ጋ",
        -7.127837557518008
      ],
      [
        "▁እንጂ",
        -7.143900268519838
      ],
      [
        "▁ማለት",
        -7.150946888576621
      ],
      [
        "ቅ",
        -7.15281918237684
      ],
      [
        "▁ሲሆን",
        -7.156659494367567
      ],
      [
        "▁ያለ",
        -7.157591272711048
      ],
      [
        "ጥ",
        -7.170473748875597
      ],
      [
        "ሉ",
        -7.1713144488832
      ],
      [
        "▁ቢ",
        -7.17331517574614
      ],
      [
        "?",
        -7.184857780550457
      ],
      [
        "ፍ",
        -7.186477463316228
      ],
      [
        "▁ብሎ",
        -7.188250062230571
      ],
      [
        "▁-",
        -7.194983376459412
      ],
      [
        "▁እ",
        -7.201616932347443
      ],
      [
        "▁መንግስት",
        -7.207954621263525
      ],
      [
        "▁በጣም",
        -7.212231647024195
      ],
      [
        "▁ምክንያት",
        -7.215055972714975
      ],
      [
        "▁ከፍተኛ",
        -7.217652359299073
      ],
      [
        "▁ዓመት",
        -7.218218310816896
      ],
      [
        "/",
        -7.241722375854183
      ],
      [
        "▁ደረጃ",
        -7.247874916087944
      ],
      [
        "ባቸው",
        -7.259175363104857
      ],
      [
        "▁ናቸው",
        -7.26252726127386
      ],
      [
        "▁መካከል",
        -7.277600102129551
      ],
      [
        "ኛ",
        -7.283761820720743
      ],
      [
        "▁ህዝብ",
        -7.285477243883289
      ],
      [
        "ዝ",
        -7.286650554059433
      ],
      [
        "▁ሆነ",
        -7.288721383359963
      ],
      [
        "▁በፊት",
        -7.312050239422261
      ],
      [
        "▁አለ",
        -7.314302726840085
      ],
      [
        "▁እንዲሁም",
        -7.318230081164405
      ],
      [
        "ዳ",
        -7.323959067298478
      ],
      [
        "፥",
        -7.333535104631251
      ],
      [
        "▁ሥራ",
        -7.334064586852317
      ],
      [
        "▁የሚያ",
        -7.3351336407049565
      ],
      [
        "▁ሆኖ",
        -7.338930226558704
      ],
      [
        "▁ዛሬ",
        -7.352019106057764
      ],
      [
        "ቶ",
        -7.352449142188565
      ],
      [
        "▁ችግር",
        -7.359717117300379
      ],
      [
        "▁ከዚህ",
        -7.366073002229872
      ],
      [
        "▁እኔ",
        -7.367313363661697
      ],
      [
        "▁እንዲህ",
        -7.378215798385011
      ],
      [
        "▁መንግሥት",
        -7.384091777536405
      ],
      [
        "▁አል",
        -7.3853371390687474
      ],
      [
        "ሮ",
        -7.393893687796162
      ],
      [
        "▁ምንም",
        -7.398941418138451
      ],
      [
        "▁ክልል",
        -7.399916720196179
      ],
      [
        "ደ",
        -7.408903220542973
      ],
      [
        "ገ",
        -7.41160425581586
      ],
      [
        "▁ሳይሆን",
        -7.421198321167932
      ],
      [
        "▁ወቅት",
        -7.427869070264101
      ],
      [
        "▁ድረስ",
        -7.428145156624883
      ],
      [
        "▁እንደሚ",
        -7.430320872477562
      ],
      [
        "▁ይህን",
        -7.4312335585791
      ],
      [
        "▁እንደሆነ",
        -7.432493577356448
      ],
      [
        "▁የሚል",
        -7.444096332050547
      ],
      [
        "▁እንዴት",
        -7.455715794380252
      ],
      [
        "▁አይደለም",
        -7.455895153299624
      ],
      [
        "▁ሁለት",
        -7.478483001451703
      ],
      [
        "ቀ",
        -7.48855252005016
      ],
      [
        "▁ስራ",
        -7.495084031072999
      ],
      [
        "▁ጥያቄ",
        -7.496634114245268
      ],
      [
        "▁በመ",
        -7.508880987440948
      ],
      [
        "ሚ",
        -7.510915877304235
      ],
      [
        "ኩ",
        -7.517052994192099
      ],
      [
        "▁አገር",
        -7.5195163790944
      ],
      [
        "ላቸው",
        -7.542771301942803
      ],
      [
        "▁ቦታ",
        -7.549186407914089
      ],
      [
        "ኮ",
        -7.551398555629385
      ],
      [
        "▁ብር",
        -7.5533222725592974
      ],
      [
        "ሞ",
        -7.557123283861655
      ],
      [
        "ሪ",
        -7.562326884157454
      ],
      [
        "ሙ",
        -7.562513890520107
      ],
      [
        "▁ልጅ",
        -7.573669219412414
      ],
      [
        "ረ",
        -7.578227882262164
      ],
      [
        "▁ዘመን",
        -7.579337515455572
      ],
      [
        "ዬ",
        -7.583790079468402
      ],
      [
        "▁ያህል",
        -7.5860629233879795
      ],
      [
        "▁እየተ",
        -7.5885158895134435
      ],
      [
        "ካ",
        -7.60869996630108
      ],
      [
        "ዶ",
        -7.611877974936439
      ],
      [
        "▁በኢትዮጵያ",
        -7.617414289676436
      ],
      [
        "▁እን",
        -7.624166474422699
      ],
      [
        "▁ሌላ",
        -7.624581215094787
      ],
      [
        "▁ቅዱስ",
        -7.628850997930217
      ],
      [
        "ሁ",
        -7.629499553300267
      ],
      [
        "ሎ",
        -7.630460355801585
      ],
      [
        "▁በሚ",
        -7.631839803308598
      ],
      [
        "▁ዓለም",
        -7.632565127205039
      ],
      [
        "ሊ",
        -7.646586674516431
      ],
      [
        "▁ትምህርት",
        -7.655653976667004
      ],
      [
        "▁ቁጥር",
        -7.659078159285926
      ],
      [
        "▁ሳይ",
        -7.664248824082
      ],
      [
        "ሩ",
        -7.665148325886607
      ],
      [
        "እ",
        -7.667913193445141
      ],
      [
        "▁እያ",
        -7.675815611550897
      ],
      [
        "ጣ",
        -7.68207981292846
      ],
      [
        "▁ሌሎች",
        -7.688014121135065
      ],
      [
        "▁ዓመታት",
        -7.688538391459398
      ],
      [
        "▁ማድረግ",
        -7.690250644136151
      ],
      [
        "ሌ",
        -7.693259288100624
      ],
      [
        "▁ዋና",
        -7.694694765591768
      ],
      [
        "▁የሆነ",
        -7.696195725135691
      ],
      [
        "ጠ",
        -7.701325374714148
      ],
      [
        "▁በኩል",
        -7.706008936651283
      ],
      [
        "▁ሕዝብ",
        -7.707414615963412
      ],
      [
        "▁ከሆነ",
        -7.711604169402079
      ],
      [
        "ለት",
        -7.714212835526991
      ],
      [
        "▁ቃል",
        -7.7157616288372
      ],
      [
        "ኑ",
        -7.716282626356142
      ],
      [
        "ዲ",
        -7.727606912431231
      ],
      [
        "▁በማለት",
        -7.733472356447352
      ],
      [
        "▁ታሪክ",
        -7.74427228431632
      ],
      [
        "ቸው",
        -7.745161450069926
      ],
      [
        "ነው",
        -7.74826639179954
      ],
      [
        "▁ካ",
        -7.749892513623504
      ],
      [
        "ቃ",
        -7.752076308993852
      ],
      [
        "▁የፖለቲካ",
        -7.753440384013357
      ],
      [
        "▁መሆን",
        -7.756587742018585
      ],
      [
        "▁አንዱ",
        -7.757525783107777
      ],
      [
        "▁ብለው",
        -7.774301729242144
      ],
      [
        "▁እንኳን",
        -7.777977814596431
      ],
      [
        "▁አገልግሎት",
        -7.783312918602061
      ],
      [
        "▁ድርጅት",
        -7.784623727009372
      ],
      [
        "▁ባለ",
        -7.786237689284738
      ],
      [
        "▁ጀምሮ",
        -7.787081116865783
      ],
      [
        "ሃ",
        -7.787603207965237
      ],
      [
        "▁ጥሩ",
        -7.78828327092053
      ],
      [
        "...",
        -7.793550835586458
      ],
      [
        "▁እኛ",
        -7.799847685529811
      ],
      [
        "ዎ",
        -7.800426478446319
      ],
      [
        "▁ክፍል",
        -7.802917480299698
      ],
      [
        "▁የማይ",
        -7.807327570538275
      ],
      [
        "▁ሀገር",
        -7.807677910012032
      ],
      [
        "▁ቡድን",
        -7.817121137361378
      ],
      [
        "ዎቹ",
        -7.819063491030448
      ],
      [
        "ሱ",
        -7.819556732044557
      ],
      [
        "ቴ",
        -7.820596649606751
      ],
      [
        "▁ያሉ",
        -7.822484495981868
      ],
      [
        "ቦ",
        -7.849126271141429
      ],
      [
        "▁መረጃ",
        -7.853772558126641
      ],
      [
        "▁ነበር።",
        -7.855513281775735
      ],
      [
        "▁ዘንድ",
        -7.865176332720715
      ],
      [
        "ቆ",
        -7.866284668621997
      ],
      [
        "ኒ",
        -7.86786069105411
      ],
      [
        "ጭ",
        -7.868882597541921
      ],
      [
        "▁እነዚህ",
        -7.870866402698473
      ],
      [
        "▁ቤተ",
        -7.874197734268115
      ],
      [
        "▁ሙሉ",
        -7.877497752306105
      ],
      [
        "ጎ",
        -7.878895865551158
      ],
      [
        "▁በአንድ",
        -7.880006856013299
      ],
      [
        "▁ስም",
        -7.882217644133437
      ],
      [
        "▁አካባቢ",
        -7.882669782365603
      ],
      [
        "▁የመ",
        -7.883517884696319
      ],
      [
        "▁ልዩ",
        -7.88378226593902
      ],
      [
        "▁ሲል",
        -7.884798804514983
      ],
      [
        "ቡ",
        -7.885850425739981
      ],
      [
        "▁ጠቅላይ",
        -7.891630060144175
      ],
      [
        "▁በሚል",
        -7.898451472274896
      ],
      [
        "▁መብት",
        -7.905320172776264
      ],
      [
        "▁በርካታ",
        -7.909771441092683
      ],
      [
        "▁1",
        -7.914823700930379
      ],
      [
        "ፋ",
        -7.915370971309166
      ],
      [
        "ቲ",
        -7.91820816996454
      ],
      [
        "▁በተ",
        -7.925270464115224
      ],
      [
        "ጅ",
        -7.927535150752828
      ],
      [
        "▁ፓርቲ",
        -7.927676828806813
      ],
      [
        "▁:",
        -7.9299890225419
      ],
      [
        "ሲ",
        -7.93137203309456
      ],
      [
        "▁በማ",
        -7.93565248384335
      ],
      [
        "▁የተለያዩ",
        -7.9360156165719005
      ],
      [
        "▁ሁሉም",
        -7.942533024926224
      ],
      [
        "ፈ",
        -7.945146297335603
      ],
      [
        "▁ሚኒስትር",
        -7.945958092641291
      ],
      [
        "ጉ",
        -7.9482743284568524
      ],
      [
        "ሬ",
        -7.948814249017321
      ],
      [
        "▁ያለውን",
        -7.952135013026426
      ],
      [
        "▁ስለዚህ",
        -7.952301207697982
      ],
      [
        "▁እንዳይ",
        -7.952359937545577
      ],
      [
        "▁ምክር",
        -7.952703788519866
      ],
      [
        "▁እጅግ",
        -7.952742143917712
      ],
      [
        "▁ለምን",
        -7.954111359983147
      ],
      [
        "▁ከተ",
        -7.956487010605878
      ],
      [
        "▁ማን",
        -7.961030256257246
      ],
      [
        "ቶች",
        -7.961684983291317
      ],
      [
        "▁ይችላል",
        -7.96194994491626
      ],
      [
        "▁ዓ.ም",
        -7.973138828072225
      ],
      [
        "▁ይህንን",
        -7.977271314417603
      ],
      [
        "▁ምርጫ",
        -7.982021653956863
      ],
      [
        "▁የነበረው",
        -7.982457881038078
      ],
      [
        "ኖ",
        -7.986980511728902
      ],
      [
        "▁መሆኑ",
        -7.987880714125493
      ],
      [
        "▁አስ",
        -7.988702403228629
      ],
      [
        "ሻ",
        -7.989588970916838
      ],
      [
        "ቁ",
        -7.990045504321255
      ],
      [
        "ኔ",
        -7.993685727688687
      ],
      [
        "▁ሚሊዮን",
        -7.994587848905615
      ],
      [
        "▁ተብሎ",
        -7.994693629260347
      ],
      [
        "▁ወር",
        -7.995463504058096
      ],
      [
        "▁ገንዘብ",
        -7.999365007337623
      ],
      [
        "ወ",
        -8.003736943787564
      ],
      [
        "▁የማ",
        -8.008384985957713
      ],
      [
        "▁ይሁን",
        -8.01282524836314
      ],
      [
        "ዊ",
        -8.021766138580153
      ],
      [
        "ሶ",
        -8.028559563809667
      ],
      [
        "▁የአ",
        -8.028886560944164
      ],
      [
        "▁ቢሆን",
        -8.029110387557296
      ],
      [
        "▁አባላት",
        -8.02931931200161
      ],
      [
        "▁ሲሉ",
        -8.034440804316494
      ],
      [
        "▁ከመ",
        -8.037484580304765
      ],
      [
        "▁በተለይ",
        -8.040070342909406
      ],
      [
        "▁የለም",
        -8.041916531817156
      ],
      [
        "▁ልጆች",
        -8.044260483355197
      ],
      [
        "▁አቀፍ",
        -8.044986167552484
      ],
      [
        "▁ተስፋ",
        -8.048461004329535
      ],
      [
        "▁2",
        -8.051045078415532
      ],
      [
        "▁ለማድረግ",
        -8.051822398209053
      ],
      [
        "ቢ",
        -8.052199735616986
      ],
      [
        "ዩ",
        -8.056281608962017
      ],
      [
        "▁3",
        -8.056464581412932
      ],
      [
        "▁አይነት",
        -8.057543241006961
      ],
      [
        "▁በሙሉ",
        -8.059797237356873
      ],
      [
        "▁ኃይል",
        -8.06005810913072
      ],
      [
        "▁ለማ",
        -8.062473501180964
      ],
      [
        "▁ዓይነት",
        -8.06431240255199
      ],
      [
        "▁ትልቅ",
        -8.069973375187088
      ],
      [
        "▁ቤቱ",
        -8.071178169890635
      ],
      [
        "▁አመት",
        -8.07338641805076
      ],
      [
        "▁በመሆኑ",
        -8.076259294546526
      ],
      [
        "▁ያሉት",
        -8.076281685855234
      ],
      [
        "▁ለመ",
        -8.077721274004412
      ],
      [
        "ሐ",
        -8.07904156137976
      ],
      [
        "ዱ",
        -8.079159702284164
      ],
      [
        "ሜ",
        -8.07933939238463
      ],
      [
        "▁ነዉ",
        -8.085505971478002
      ],
      [
        "ባት",
        -8.102897238392325
      ],
      [
        "▁መልካም",
        -8.10324135803525
      ],
      [
        "ችን",
        -8.105154097491328
      ],
      [
        "▁ድጋፍ",
        -8.109946623694167
      ],
      [
        "▁ጉዳዮች",
        -8.110576923787761
      ],
      [
        "ዛ",
        -8.112346461098019
      ],
      [
        "▁ከሚ",
        -8.113629471728679
      ],
      [
        "▁ይሆናል",
        -8.114563833216458
      ],
      [
        "▁ፍርድ",
        -8.117867506770562
      ],
      [
        "▁ነበር፡፡",
        -8.118027137737705
      ],
      [
        "▁ለውጥ",
        -8.122050369217558
      ],
      [
        "▁መግለጫ",
        -8.126448115100331
      ],
      [
        "▁በማድረግ",
        -8.126955452763918
      ],
      [
        "ኪ",
        -8.12855859992563
      ],
      [
        "▁እግዚአብሔር",
        -8.129467697268916
      ],
      [
        "▁ክርስቲያን",
        -8.132802442762605
      ],
      [
        "▁አስተዳደር",
        -8.133305769467887
      ],
      [
        "▁አንዳንድ",
        -8.134403218965701
      ],
      [
        "▁መሠረት",
        -8.13642303343475
      ],
      [
        "▁ሰዓት",
        -8.138270639738577
      ],
      [
        "ተው",
        -8.139793173051608
      ],
      [
        "▁ሲያ",
        -8.147035559220017
      ],
      [
        "▁ሺህ",
        -8.149790320951347
      ],
      [
        "▁ኢ",
        -8.150308085194306
      ],
      [
        "▁ግንኙነት",
        -8.150797497953642
      ],
      [
        "▁አካል",
        -8.151681968133465
      ],
      [
        "▁ነገሮች",
        -8.160554146494631
      ],
      [
        "▁የምን",
        -8.161869982225877
      ],
      [
        "ሴ",
        -8.162640404358001
      ],
      [
        "▁ቤቶች",
        -8.165259692293056
      ],
      [
        "ታል",
        -8.16664890881926
      ],
      [
        "▁መሰረት",
        -8.173458512477662
      ],
      [
        "▁አሁንም",
        -8.174798043265957
      ],
      [
        "ቤ",
        -8.176165747103111
      ],
      [
        "▁ውጤት",
        -8.17836764579374
      ],
      [
        "▁ልማት",
        -8.180388379088106
      ],
      [
        "▁ያላቸው",
        -8.180593915780225
      ],
      [
        "▁መሪ",
        -8.18671176173391
      ],
      [
        "▁የሚለው",
        -8.188882390766913
      ],
      [
        "▁ይልቅ",
        -8.190496128618497
      ],
      [
        ":",
        -8.192406704989478
      ],
      [
        "▁እንዳ",
        -8.19469467599531
      ],
      [
        "▁በአ",
        -8.1964979740958
      ],
      [
        "ዘ",
        -8.196772062019399
      ],
      [
        "ዕ",
        -8.197683193047927
      ],
      [
        "▁::",
        -8.199399415514737
      ],
      [
        "▁የምት",
        -8.201246848115177
      ],
      [
        "ችው",
        -8.203602433916876
      ],
      [
        "▁ይሄ",
        -8.204414254663607
      ],
      [
        "▁አምላክ",
        -8.20794242990897
      ],
      [
        "▁ያስ",
        -8.208312233419749
      ],
      [
        "▁መጠን",
        -8.21305864537169
      ],
      [
        "▁እንቅስቃሴ",
        -8.213797907250749
      ],
      [
        "▁ዋጋ",
        -8.220356993931711
      ],
      [
        "▁አሉ",
        -8.222866376307223
      ],
      [
        "▁ሰላም",
        -8.223243779034236
      ],
      [
        "▁ያል",
        -8.224638641277489
      ],
      [
        "ጃ",
        -8.22490081269478
      ],
      [
        "▁በተለያዩ",
        -8.229667957342523
      ],
      [
        "▁መልኩ",
        -8.232563871221645
      ],
      [
        "▁ኢየሱስ",
        -8.233069507001817
      ],
      [
        "▁ጨዋታ",
        -8.240072183327326
      ],
      [
        "▁ዜና",
        -8.24116470092654
      ],
      [
        "»",
        -8.241267680768278
      ],
      [
        "▁ቀደም",
        -8.255188773677478
      ],
      [
        "’",
        -8.256093780456453
      ],
      [
        "▁ጥረት",
        -8.258598268799993
      ],
      [
        "▁አት",
        -8.258699148608038
      ],
      [
        "ለው",
        -8.259001316683397
      ],
      [
        "ጽ",
        -8.259726983428392
      ],
      [
        "▁ሊሆን",
        -8.26016424652934
      ],
      [
        "▁ቢሆንም",
        -8.264514190407995
      ],
      [
        "▁አደጋ",
        -8.26511356658789
      ],
      [
        "▁የሰው",
        -8.268514674876334
      ],
      [
        "▁ጥቅም",
        -8.269860010473446
      ],
      [
        "▁5",
        -8.271525903006856
      ],
      [
        "▁ውሳኔ",
        -8.272124419688126
      ],
      [
        "▁መጽሐፍ",
        -8.275339942692307
      ],
      [
        "▁በአዲስ",
        -8.275481675927233
      ],
      [
        "▁ኣ",
        -8.27765497202974
      ],
      [
        "▁እኮ",
        -8.278640032657682
      ],
      [
        "▁በመቶ",
        -8.279775449376764
      ],
      [
        "▁ሆነው",
        -8.28170318623211
      ],
      [
        "▁መቶ",
        -8.284933689802871
      ],
      [
        "▁የውጭ",
        -8.297319514809978
      ],
      [
        "▁ይህም",
        -8.297362910059906
      ],
      [
        "ቻ",
        -8.300573379064346
      ],
      [
        "ፊ",
        -8.301090193757632
      ],
      [
        "ሸ",
        -8.303088361606711
      ],
      [
        "ዓ",
        -8.304102402027763
      ],
      [
        "▁እዚህ",
        -8.304386437553958
      ],
      [
        "▁በሌላ",
        -8.308549625071185
      ],
      [
        "ዴ",
        -8.310090566216273
      ],
      [
        "▁ውጭ",
        -8.312049481800575
      ],
      [
        "▁አንተ",
        -8.312637747305217
      ],
      [
        "ሀ",
        -8.314209655323227
      ],
      [
        "▁የዓለም",
        -8.316606277449738
      ],
      [
        "ጡ",
        -8.316760890374777
      ],
      [
        "▁ጨምሮ",
        -8.317324637555636
      ],
      [
        "▁4",
        -8.31877573230195
      ],
      [
        "▁ሊያ",
        -8.320932961069015
      ],
      [
        "▁ተቋማት",
        -8.323200935894656
      ],
      [
        "▁ዙሪያ",
        -8.323381672361519
      ],
      [
        "▁እምነት",
        -8.326636691446884
      ],
      [
        "ታቸው",
        -8.335558426324349
      ],
      [
        "▁መሬት",
        -8.33682361535733
      ],
      [
        "▁ኳስ",
        -8.338469663301245
      ],
      [
        "▁ቋንቋ",
        -8.343039646548883
      ],
      [
        "ህን",
        -8.3440813072846
      ],
      [
        "››",
        -8.344636090827537
      ],
      [
        "▁የሆነው",
        -8.347191185660726
      ],
      [
        "▁ሕይወት",
        -8.347295600892593
      ],
      [
        "▁እርምጃ",
        -8.348052205584276
      ],
      [
        "▁የሆኑ",
        -8.350620109585932
      ],
      [
        "▁ሕግ",
        -8.351709345035097
      ],
      [
        "▁አድርጎ",
        -8.35517527835288
      ],
      [
        "▁ብዬ",
        -8.360256600710015
      ],
      [
        "▁ስር",
        -8.36078136803504
      ],
      [
        "▁አለበት",
        -8.360836719353552
      ],
      [
        "▁/",
        -8.371759272990177
      ],
      [
        "ጀ",
        -8.37180780950465
      ],
      [
        "ቱን",
        -8.371895527797637
      ],
      [
        "▁አን",
        -8.377765502344797
      ],
      [
        "▁የአማራ",
        -8.380754057861006
      ],
      [
        "ሣ",
        -8.383261970994912
      ],
      [
        "▁10",
        -8.390106896067982
      ],
      [
        "▁አማራ",
        -8.390213493136045
      ],
      [
        "▁እንዲያ",
        -8.391914122821431
      ],
      [
        "▁ብለዋል",
        -8.392349780403705
      ],
      [
        "▁እሱ",
        -8.393058407099806
      ],
      [
        "ዎችን",
        -8.394880402448846
      ],
      [
        "▁ለዚህ",
        -8.396465057440185
      ],
      [
        "ሕ",
        -8.39708009272478
      ],
      [
        "ጫ",
        -8.397353765415984
      ],
      [
        "በትን",
        -8.401836848738233
      ],
      [
        "▁በአሁኑ",
        -8.410987843579647
      ],
      [
        "ጂ",
        -8.412454142312955
      ],
      [
        "▁«",
        -8.416227204761897
      ],
      [
        "▁–",
        -8.416496207278023
      ],
      [
        "▁ፍቅር",
        -8.41679531561285
      ],
      [
        "▁ትኩረት",
        -8.418701264693993
      ],
      [
        "▁ከፍ",
        -8.419095574082734
      ],
      [
        "▁‹‹",
        -8.420570115859633
      ],
      [
        "::",
        -8.42073794511599
      ],
      [
        "▁እንኳ",
        -8.422260099944015
      ],
      [
        "▁ጦርነት",
        -8.422901094957446
      ],
      [
        "▁ተግባር",
        -8.423252951994284
      ],
      [
        "▁ዶላር",
        -8.423723591476953
      ],
      [
        "▁ፖሊስ",
        -8.42543706960243
      ],
      [
        "ልኝ",
        -8.426007997608924
      ],
      [
        "▁ወጣቶች",
        -8.430881728943861
      ],
      [
        "▁ቀናት",
        -8.436932547520277
      ],
      [
        "▁ለሚ",
        -8.436956802289032
      ],
      [
        "▁ፖለቲካ",
        -8.437319516992268
      ],
      [
        "▁ዜጎች",
        -8.442974025551672
      ],
      [
        "▁ሳምንት",
        -8.443501710953045
      ],
      [
        "▁‘",
        -8.443703315677276
      ],
      [
        "▁ጉዳት",
        -8.444225703516938
      ],
      [
        "ፌ",
        -8.44504954118825
      ],
      [
        "▁7",
        -8.445419548121398
      ],
      [
        "▁ዶክተር",
        -8.446513098747603
      ],
      [
        "▁ሴቶች",
        -8.44788301375325
      ],
      [
        "▁እያለ",
        -8.449271648068684
      ],
      [
        "▁“የ",
        -8.450803018173792
      ],
      [
        "▁የአዲስ",
        -8.453723088064159
      ],
      [
        "▁ነፃ",
        -8.456898115448617
      ],
      [
        "▁ጥቃት",
        -8.457375847087922
      ],
      [
        "▁ልብ",
        -8.458279242666556
      ],
      [
        "▁አብይ",
        -8.459253709559386
      ],
      [
        "▁ባለፈው",
        -8.460935246605763
      ],
      [
        "▁አቅም",
        -8.461368425733795
      ],
      [
        "▁ተጨማሪ",
        -8.461393801531287
      ],
      [
        "ዋል",
        -8.462080381751164
      ],
      [
        "▁ገና",
        -8.462404551145237
      ],
      [
        "▁ነኝ",
        -8.462885854855935
      ],
      [
        "▁ድርጅቶች",
        -8.465743694261475
      ],
      [
        "▁አገሮች",
        -8.466799937566952
      ],
      [
        "▁ስሜት",
        -8.46944491719058
      ],
      [
        "▁ሥርዓት",
        -8.469870320544041
      ],
      [
        "▁ሌላው",
        -8.471407678119316
      ],
      [
        "▁በተመለከተ",
        -8.47338645172184
      ],
      [
        "▁ስት",
        -8.474446977415537
      ],
      [
        "▁እውነት",
        -8.477449630101646
      ],
      [
        "ሆ",
        -8.479404484279115
      ],
      [
        "▁ወ",
        -8.48136008052117
      ],
      [
        "▁መልስ",
        -8.49456209516902
      ],
      [
        "▁ሴት",
        -8.495110196337103
      ],
      [
        "▁ኢትዮጵያውያን",
        -8.495571155089744
      ],
      [
        "▁ሚኒስቴር",
        -8.495772476590822
      ],
      [
        "▁ምክንያቱም",
        -8.498510843826832
      ],
      [
        "▁አራት",
        -8.498654669324221
      ],
      [
        "▁አላ",
        -8.500826639177191
      ],
      [
        "▁ልክ",
        -8.5025899566722
      ],
      [
        "▁አካላት",
        -8.504989050982612
      ],
      [
        "▁ምላሽ",
        -8.508984910103813
      ],
      [
        "ፎ",
        -8.510738575444906
      ],
      [
        "▁ውይይት",
        -8.511483957843698
      ],
      [
        "▁ከዚያ",
        -8.512226077393482
      ],
      [
        "▁አያ",
        -8.516709934924256
      ],
      [
        "▁ሂደት",
        -8.517065982021412
      ],
      [
        "▁ሆኖም",
        -8.518475587969956
      ],
      [
        "▁የትግራይ",
        -8.520737076432217
      ],
      [
        "▁ፍላጎት",
        -8.521809378861574
      ],
      [
        "▁የሚገኙ",
        -8.522754439244354
      ],
      [
        "▁አባል",
        -8.523162966941543
      ],
      [
        "▁ፊት",
        -8.526231350803421
      ],
      [
        "▁እንዳለ",
        -8.527128606923599
      ],
      [
        "▁ስለሚ",
        -8.5275679831488
      ],
      [
        "▁ስለሆነ",
        -8.52909340841999
      ],
      [
        "ሥ",
        -8.529502039495867
      ],
      [
        "ነቱ",
        -8.530713257528511
      ],
      [
        "▁አምስት",
        -8.531652470552219
      ],
      [
        "ጨ",
        -8.534877045535803
      ],
      [
        "▁ይገባል",
        -8.534895726085136
      ],
      [
        "▁ዘ",
        -8.535702157423383
      ],
      [
        "▁እስካሁን",
        -8.540302592561877
      ],
      [
        "▁ግንባታ",
        -8.540492329315859
      ],
      [
        "፡-",
        -8.541986744314537
      ],
      [
        "▁ችግሮች",
        -8.543143490426134
      ],
      [
        "▁የነበሩ",
        -8.54385088540733
      ],
      [
        "▁የሥራ",
        -8.544372775674926
      ],
      [
        "▁ዓ.ም.",
        -8.546245925905144
      ],
      [
        "▁አስፈላጊ",
        -8.546479742362138
      ],
      [
        "▁ባይ",
        -8.547701616622817
      ],
      [
        "▁20",
        -8.549220468247162
      ],
      [
        "▁ስን",
        -8.550256455827327
      ],
      [
        "▁6",
        -8.551740125489035
      ],
      [
        "▁ትግል",
        -8.556519002448708
      ],
      [
        "ዋን",
        -8.55800063931798
      ],
      [
        "▁ተማሪዎች",
        -8.560406390214627
      ],
      [
        "▁ጥናት",
        -8.564042162419408
      ],
      [
        "▁ነጥብ",
        -8.565647132624846
      ],
      [
        "▁ወጣት",
        -8.566904301472293
      ],
      [
        "▁አፍሪካ",
        -8.568789603384289
      ],
      [
        "▁...",
        -8.57087976422203
      ],
      [
        "ፓ",
        -8.571480654919549
      ],
      [
        "▁በተለይም",
        -8.572121949699758
      ],
      [
        "▁የተሻለ",
        -8.572763592984122
      ],
      [
        "▁ስብሰባ",
        -8.574458550918884
      ],
      [
        "▁ከባድ",
        -8.57462170843031
      ],
      [
        "▁በዓለም",
        -8.577702964398243
      ],
      [
        "▁ይሖዋ",
        -8.578703352343998
      ],
      [
        "ፉ",
        -8.579039745860358
      ],
      [
        "▁ብሔራዊ",
        -8.58020829643514
      ],
      [
        "▁ካለ",
        -8.58244731309295
      ],
      [
        "▁እንደነበር",
        -8.58290420562151
      ],
      [
        "ቸውን",
        -8.583739329989827
      ],
      [
        "▁ወይ",
        -8.585819123069692
      ],
      [
        "ላት",
        -8.585983860578933
      ],
      [
        "▁አሜሪካ",
        -8.586440481389017
      ],
      [
        "▁ወንጀል",
        -8.592267199047924
      ],
      [
        "▁የስራ",
        -8.592326106844475
      ],
      [
        "ዚ",
        -8.5926908694951
      ],
      [
        "▁ይዞ",
        -8.595807158152668
      ],
      [
        "▁ዶ/ር",
        -8.596348357089571
      ],
      [
        "▁ለምሳሌ",
        -8.596369726059006
      ],
      [
        "▁እጅ",
        -8.596649296919875
      ],
      [
        "▁ወያኔ",
        -8.596791978630103
      ],
      [
        "ጊ",
        -8.597213623788305
      ],
      [
        "▁ጉባኤ",
        -8.598865445882776
      ],
      [
        "▁ብለን",
        -8.59948403715268
      ],
      [
        "▁በየ",
        -8.602843468640977
      ],
      [
        "▁በተጨማሪ",
        -8.603385265560863
      ],
      [
        "▁አስተያየት",
        -8.605732849000898
      ],
      [
        "▁በቅርቡ",
        -8.606032097709846
      ],
      [
        "▁የአፍሪካ",
        -8.60656659277488
      ],
      [
        "▁ዘርፍ",
        -8.607829319632923
      ],
      [
        "▁ባንክ",
        -8.609588052892793
      ],
      [
        "▁ይላል",
        -8.61123296783346
      ],
      [
        "▁ደም",
        -8.612111032316623
      ],
      [
        "ጸ",
        -8.612960410692837
      ],
      [
        "▁ኦ",
        -8.61945261232186
      ],
      [
        "ዮ",
        -8.623039556449116
      ],
      [
        "ኛው",
        -8.624486747019644
      ],
      [
        "▁የኦሮሞ",
        -8.625726723335287
      ],
      [
        "▁አባ",
        -8.626921938883278
      ],
      [
        "ጌ",
        -8.62745784582923
      ],
      [
        "▁ስርዓት",
        -8.627766649508322
      ],
      [
        "▁ነው.",
        -8.630647181381292
      ],
      [
        "▁ለማግኘት",
        -8.631475617787865
      ],
      [
        "▁ስልጣን",
        -8.633161461858732
      ],
      [
        "▁ወራት",
        -8.63326130913659
      ],
      [
        "ፅ",
        -8.634212572464047
      ],
      [
        "▁ህይወት",
        -8.639251375992266
      ],
      [
        "▁ዞን",
        -8.640488825935767
      ],
      [
        "▁ቢሮ",
        -8.640919853658696
      ],
      [
        "ቼ",
        -8.641332530911324
      ],
      [
        "▁ነው?",
        -8.645403014210835
      ],
      [
        "▁መሪዎች",
        -8.645909018832398
      ],
      [
        "▁የጤና",
        -8.648591901286446
      ],
      [
        "▁ኮሚቴ",
        -8.650610219516444
      ],
      [
        "ላችሁ",
        -8.652498183437665
      ],
      [
        "▁ተከትሎ",
        -8.653302265724003
      ],
      [
        "ብን",
        -8.653781036134095
      ],
      [
        "▁ናቸው።",
        -8.655242522735021
      ],
      [
        "▁መንፈስ",
        -8.657235241843994
      ],
      [
        "▁ከአ",
        -8.657770454965716
      ],
      [
        "▁ባለው",
        -8.658612316408519
      ],
      [
        "▁19",
        -8.668159939480711
      ],
      [
        "▁ህግ",
        -8.668406536622925
      ],
      [
        "▁በሆነ",
        -8.669024103865896
      ],
      [
        "▁ግብ",
        -8.67139955428503
      ],
      [
        "ቸ",
        -8.671506748665562
      ],
      [
        "▁የመንግስት",
        -8.67200982333077
      ],
      [
        "▁ካል",
        -8.675650991603977
      ],
      [
        "ቷ",
        -8.677778433296059
      ],
      [
        "▁ሀ",
        -8.67912442830097
      ],
      [
        "ፕ",
        -8.679509935335481
      ],
      [
        "▁አህመድ",
        -8.679900173759203
      ],
      [
        "\"",
        -8.68112400315629
      ],
      [
        "▁የተነሳ",
        -8.681465948040165
      ],
      [
        "▁ትንሽ",
        -8.681984929927262
      ],
      [
        "▁ይሆን",
        -8.682115759726006
      ],
      [
        "▁ኢትዮጵያዊ",
        -8.682737148167977
      ],
      [
        "▁እነ",
        -8.684925548164168
      ],
      [
        "ሰው",
        -8.686005408189004
      ],
      [
        "▁ውጪ",
        -8.689667679134484
      ],
      [
        "▁15",
        -8.69240585079981
      ],
      [
        "ጦ",
        -8.693863555631118
      ],
      [
        "▁ውሃ",
        -8.694499898531944
      ],
      [
        "▁ጥሪ",
        -8.696687775282113
      ],
      [
        "▁ፕሬዚዳንት",
        -8.69918405903434
      ],
      [
        "▁የንግድ",
        -8.702025125939842
      ],
      [
        "▁ማግኘት",
        -8.702581803964785
      ],
      [
        "▁ወረዳ",
        -8.70275486226167
      ],
      [
        "▁በዚህም",
        -8.703490836381361
      ],
      [
        "▁የትምህርት",
        -8.703625683033199
      ],
      [
        "▁እንዴ",
        -8.704235097503703
      ],
      [
        "አል",
        -8.705168158472768
      ],
      [
        "▁በቂ",
        -8.705749574230927
      ],
      [
        "▁ነገ",
        -8.706433095946068
      ],
      [
        "▁12",
        -8.706837478736748
      ],
      [
        "ተኛ",
        -8.707596344415087
      ],
      [
        "(",
        -8.712346993485061
      ],
      [
        "▁አለው",
        -8.712458595653445
      ],
      [
        "▁ምድር",
        -8.713155060415929
      ],
      [
        "▁አንድነት",
        -8.719282262304121
      ],
      [
        "▁መሆናቸውን",
        -8.719514625841366
      ],
      [
        "▁ቅድሚያ",
        -8.720293759777851
      ],
      [
        "▁ትውልድ",
        -8.720721490892657
      ],
      [
        "▁የግል",
        -8.721741427689741
      ],
      [
        "▁ስምምነት",
        -8.724354701203751
      ],
      [
        "▁ናቸው፡፡",
        -8.724893124400946
      ],
      [
        "▁ንብረት",
        -8.727786840571781
      ],
      [
        "▁ይችላሉ",
        -8.728466043580589
      ],
      [
        "▁የበለጠ",
        -8.731868227352626
      ],
      [
        "ሠ",
        -8.73771456287498
      ],
      [
        "በር",
        -8.738645681080211
      ],
      [
        "▁ዓላማ",
        -8.74036851189231
      ],
      [
        "▁አየር",
        -8.741004946702331
      ],
      [
        "▁ሜትር",
        -8.742533888983978
      ],
      [
        "ታችን",
        -8.742907856394428
      ],
      [
        "▁ዳር",
        -8.746013043080914
      ],
      [
        "▁የነበረ",
        -8.746501282966914
      ],
      [
        "▁ደስ",
        -8.74725649223253
      ],
      [
        "▁በተጨማሪም",
        -8.747284064943146
      ],
      [
        "▁ክብር",
        -8.7473586360063
      ],
      [
        "▁ገቢ",
        -8.748321008355786
      ],
      [
        "▁ግጭት",
        -8.750599845309779
      ],
      [
        "▁ክርስቶስ",
        -8.751677242482215
      ],
      [
        "▁ዝግጅት",
        -8.755134891988163
      ],
      [
        "▁ንግድ",
        -8.755629387981793
      ],
      [
        "▁የህዝብ",
        -8.75614554234813
      ],
      [
        "▁ሺ",
        -8.75815526644329
      ],
      [
        "ቂ",
        -8.759569570575826
      ],
      [
        "ናቸው",
        -8.759991024815033
      ],
      [
        "▁ሦስት",
        -8.760633497562461
      ],
      [
        "▁ዘር",
        -8.760667886589268
      ],
      [
        "▁እንዲሆን",
        -8.7611412755413
      ],
      [
        "▁አዳዲስ",
        -8.761296334428003
      ],
      [
        "▁በዓል",
        -8.762404128927422
      ],
      [
        "▁ንግግር",
        -8.762602641341543
      ],
      [
        "▁የሚያስ",
        -8.764805808815009
      ],
      [
        "▁እንደተ",
        -8.765523627769904
      ],
      [
        "▁አመራር",
        -8.76742229314746
      ],
      [
        "ሺ",
        -8.76774765061545
      ],
      [
        "ሹ",
        -8.771105381411807
      ],
      [
        "▁እስኪ",
        -8.77175371802699
      ],
      [
        "▁ግንቦት",
        -8.772149233406564
      ],
      [
        "▁አመታት",
        -8.772969003478515
      ],
      [
        "▁የሚለውን",
        -8.774765410205145
      ],
      [
        "▁8",
        -8.774907257312112
      ],
      [
        "▁ጠንካራ",
        -8.775315899466879
      ],
      [
        "▁ፈቃድ",
        -8.77620369256579
      ],
      [
        "▁ኢትዮጵያን",
        -8.777110323965703
      ],
      [
        "▁ተናግረዋል",
        -8.7801184534643
      ],
      [
        "▁ጭምር",
        -8.780502531013155
      ],
      [
        "▁የጋራ",
        -8.785544161188463
      ],
      [
        "▁መለስ",
        -8.789440028717273
      ],
      [
        "▁ጤና",
        -8.78957005495897
      ],
      [
        "▁ማንም",
        -8.78990624380898
      ],
      [
        "▁ሚና",
        -8.790134253785514
      ],
      [
        "▁ሶስት",
        -8.791492258668425
      ],
      [
        "▁መስጠት",
        -8.791593236613569
      ],
      [
        "▁አልፎ",
        -8.793410362760861
      ],
      [
        "ሪያ",
        -8.794552494874617
      ],
      [
        "▁ታዲያ",
        -8.794712422142343
      ],
      [
        "▁አለም",
        -8.795209489883698
      ],
      [
        "▁ድል",
        -8.795391994169773
      ],
      [
        "▁አድርገው",
        -8.795766506041973
      ],
      [
        "▁እያሉ",
        -8.797068611493236
      ],
      [
        "▁ጉዞ",
        -8.797956706073707
      ],
      [
        "▁ጥቂት",
        -8.800792807164328
      ],
      [
        "▁አካባቢዎች",
        -8.801659752094984
      ],
      [
        "▁በመሆን",
        -8.802328390076152
      ],
      [
        "▁ዩኒቨርሲቲ",
        -8.80332719829681
      ],
      [
        "ቄ",
        -8.805597518643108
      ],
      [
        "▁ምግብ",
        -8.80766258769482
      ],
      [
        "▁ሚኒስትሩ",
        -8.807883446390198
      ],
      [
        "▁በዚያ",
        -8.808509463876517
      ],
      [
        "▁በመሆኑም",
        -8.808908843408542
      ],
      [
        "▁ያልተ",
        -8.80989293809469
      ],
      [
        "▁ከአንድ",
        -8.813005837006948
      ],
      [
        "▁ጦር",
        -8.815580098020057
      ],
      [
        "▁ባለፉት",
        -8.816194197274733
      ],
      [
        "▁ናት",
        -8.818317532755188
      ],
      [
        "▁ተመሳሳይ",
        -8.818675436020092
      ],
      [
        "▁ከዚያም",
        -8.81926542185056
      ],
      [
        "ሽን",
        -8.820452263026429
      ],
      [
        "▁ቡና",
        -8.822244061562087
      ],
      [
        "▁ሀብት",
        -8.824292093059709
      ],
      [
        "▁ምክትል",
        -8.824414552370317
      ],
      [
        "▁የነበሩት",
        -8.827151179869952
      ],
      [
        "▁ነዋሪዎች",
        -8.831220570496363
      ],
      [
        "▁አገራት",
        -8.833868587430942
      ],
      [
        "ኖች",
        -8.834260257157137
      ],
      [
        "▁በወቅቱ",
        -8.834276592305352
      ],
      [
        "▁መልክ",
        -8.837908721137195
      ],
      [
        "▁መድረክ",
        -8.838116943222223
      ],
      [
        "ገኝ",
        -8.83825743481076
      ],
      [
        "▁ማስ",
        -8.839865392960718
      ],
      [
        "▁ኤ",
        -8.840153025948716
      ],
      [
        "▁ቀላል",
        -8.841253221889906
      ],
      [
        "▁ይፋ",
        -8.842157836497243
      ],
      [
        "▁አሳ",
        -8.84265689217092
      ],
      [
        "▁ነን",
        -8.844332742084099
      ],
      [
        "▁ክስ",
        -8.844807103567705
      ],
      [
        "▁ተግባራዊ",
        -8.845861051111507
      ],
      [
        "▁የመንግሥት",
        -8.84615731117732
      ],
      [
        "▁ሃሳብ",
        -8.846306559204761
      ],
      [
        "ተር",
        -8.84794504917647
      ],
      [
        "ባል",
        -8.852926404230768
      ],
      [
        "▁ሥልጣን",
        -8.853050766558649
      ],
      [
        "▁ታላቅ",
        -8.853606131298232
      ],
      [
        "▁ፓርቲዎች",
        -8.85392869982305
      ],
      [
        "▁ሱዳን",
        -8.854012136506373
      ],
      [
        "▁ያለበት",
        -8.855460482867928
      ],
      [
        "ጁ",
        -8.855933905416867
      ],
      [
        "▁ጥበቃ",
        -8.856461824734234
      ],
      [
        "ዉን",
        -8.856526523231622
      ],
      [
        "▁11",
        -8.857984161258761
      ],
      [
        "▁የዚህ",
        -8.858425410528236
      ],
      [
        "ፀ",
        -8.859632018728009
      ],
      [
        "▁ወገን",
        -8.859835264231515
      ],
      [
        "▁የሆኑት",
        -8.85995961949184
      ],
      [
        "▁መኖር",
        -8.860529692300299
      ],
      [
        "ወጣ",
        -8.862728635099312
      ],
      [
        "▁2012",
        -8.864748587526938
      ],
      [
        "▁\"",
        -8.86481173351954
      ],
      [
        "▁ምርት",
        -8.866182482099655
      ],
      [
        "▁የሚችል",
        -8.868617615722531
      ],
      [
        "▁ግምገማዎች",
        -8.877192192737855
      ],
      [
        "▁ነበሩ",
        -8.878407169502864
      ],
      [
        "▁ልዩነት",
        -8.879986173199056
      ],
      [
        "▁ባል",
        -8.880331173098343
      ],
      [
        "▁የመጀመሪያ",
        -8.88175283734394
      ],
      [
        "▁በጋራ",
        -8.881821468007045
      ],
      [
        "▁ሞት",
        -8.883175443223159
      ],
      [
        "ኦ",
        -8.883763113664559
      ],
      [
        "▁አዋጅ",
        -8.88463107169745
      ],
      [
        "ሮች",
        -8.886518626154364
      ],
      [
        "▁የሚገኘው",
        -8.887545871908051
      ],
      [
        "▁አቋም",
        -8.88762767001644
      ],
      [
        "▁ተቋም",
        -8.887973130921406
      ],
      [
        "▁ወገኖች",
        -8.88845869583037
      ],
      [
        "▁መስመር",
        -8.888618388628341
      ],
      [
        "▁መከላከያ",
        -8.889779354985523
      ],
      [
        "▁የት",
        -8.890496702678796
      ],
      [
        "▁ሰፊ",
        -8.89094548259968
      ],
      [
        "▁ወዲህ",
        -8.890947416683453
      ],
      [
        "▁መጀመሪያ",
        -8.892205001645312
      ],
      [
        "▁9",
        -8.892652502669494
      ],
      [
        "ዜ",
        -8.893003367244512
      ],
      [
        "▁ውድድር",
        -8.893060441173203
      ],
      [
        "▁ገጽ",
        -8.894648371991522
      ],
      [
        "▁እርሱ",
        -8.896120814904542
      ],
      [
        "▁ባለሙያዎች",
        -8.897662508878106
      ],
      [
        "ቹ",
        -8.899333672389918
      ],
      [
        "▁ነጻ",
        -8.900205435180741
      ],
      [
        "▁ከተሞች",
        -8.903399093455699
      ],
      [
        "▁እግር",
        -8.903630335951519
      ],
      [
        "▁ዝም",
        -8.904973324104267
      ],
      [
        "▁ነው፤",
        -8.907383918804848
      ],
      [
        "▁የጦር",
        -8.908441402269085
      ],
      [
        "▁ለኢትዮጵያ",
        -8.908656599052259
      ],
      [
        "▁የሚባል",
        -8.909936226514688
      ],
      [
        "▁ከማ",
        -8.910054452456343
      ],
      [
        "▁ራሱን",
        -8.910393985329913
      ],
      [
        "ችሁ",
        -8.910835368248646
      ],
      [
        "▁ሀገራት",
        -8.91404776098355
      ],
      [
        "▁ሊግ",
        -8.914808694953974
      ],
      [
        "▁ዕለት",
        -8.914850806258963
      ],
      [
        "▁ሥር",
        -8.915486980431409
      ],
      [
        "▁የአሜሪካ",
        -8.91585329364875
      ],
      [
        "ዙ",
        -8.917014274678232
      ],
      [
        "▁ተቃውሞ",
        -8.917180607836816
      ],
      [
        "▁ዕድል",
        -8.918742045151436
      ],
      [
        "ኳ",
        -8.921296180671403
      ],
      [
        "▁እድል",
        -8.923661099320016
      ],
      [
        "▁አመራሮች",
        -8.923840324268259
      ],
      [
        "ያን",
        -8.925146793204355
      ],
      [
        "▁ረገድ",
        -8.926175532891353
      ],
      [
        "▁ጥያቄዎች",
        -8.926530609171985
      ],
      [
        "▁እንደሚችል",
        -8.926995070888465
      ],
      [
        "▁እነዚህን",
        -8.927277993148675
      ],
      [
        "▁በአጠቃላይ",
        -8.927578981839666
      ],
      [
        "፦",
        -8.927660105319404
      ],
      [
        "ገባ",
        -8.928591973358499
      ],
      [
        "▁ኖሮ",
        -8.929275240748515
      ],
      [
        "▁የገንዘብ",
        -8.930515497298607
      ],
      [
        "ሰራ",
        -8.930590425092767
      ],
      [
        "▁ባለቤት",
        -8.930873471003506
      ],
      [
        "▁ድምፅ",
        -8.933388522545854
      ],
      [
        "▁ሐሳብ",
        -8.934394928645068
      ],
      [
        "▁ቢሊዮን",
        -8.9363809871318
      ],
      [
        "ብኝ",
        -8.936421129033198
      ],
      [
        "▁አጋጣሚ",
        -8.937042739232181
      ],
      [
        "▁ሲባል",
        -8.938913337036086
      ],
      [
        "▁ይቻላል",
        -8.938964972607145
      ],
      [
        "ሄ",
        -8.94022493580395
      ],
      [
        "▁ማየት",
        -8.940260570071434
      ],
      [
        "▁ይበልጥ",
        -8.940582610511996
      ],
      [
        "▁ከላይ",
        -8.94108248442174
      ],
      [
        "▁ደቂቃ",
        -8.942248715714392
      ],
      [
        "▁ትርጉም",
        -8.942527818253692
      ],
      [
        "▁የተባለው",
        -8.946225805639342
      ],
      [
        "▁በዚሁ",
        -8.946408288498489
      ],
      [
        "▁ራሱ",
        -8.947270753729573
      ],
      [
        "▁ትናንት",
        -8.948343986860223
      ],
      [
        "ኬ",
        -8.94852929284323
      ],
      [
        "▁ፕሮግራም",
        -8.949217044601122
      ],
      [
        "▁(የ",
        -8.952810436866063
      ],
      [
        "▁በር",
        -8.956389973230012
      ],
      [
        "▁ከኢትዮጵያ",
        -8.956521649526996
      ],
      [
        "▁“በ",
        -8.9567669669896
      ],
      [
        "▁የነበረውን",
        -8.956930445266298
      ],
      [
        "▁ገበያ",
        -8.95705323213503
      ],
      [
        "▁ክፍለ",
        -8.957512275066774
      ],
      [
        "ቋ",
        -8.958351244141706
      ],
      [
        "▁ክፍሎች",
        -8.958432497906466
      ],
      [
        "▁ምርመራ",
        -8.958873991220488
      ],
      [
        "▁እነሱ",
        -8.963373543997305
      ],
      [
        "▁ኃላፊ",
        -8.963813182134954
      ],
      [
        "▁ግለሰቦች",
        -8.964367866677515
      ],
      [
        "ስት",
        -8.9655411232555
      ],
      [
        "▁ተጠቃሚ",
        -8.965569248901994
      ],
      [
        "▁በታች",
        -8.965685141303863
      ],
      [
        "▁አስተሳሰብ",
        -8.968685907531313
      ],
      [
        "▁30",
        -8.968851674840664
      ],
      [
        "▁በከፍተኛ",
        -8.969246589649432
      ],
      [
        "▁አቅጣጫ",
        -8.971968243149242
      ],
      [
        "▁ተገቢ",
        -8.973365754222176
      ],
      [
        "ኛል",
        -8.975731236749178
      ],
      [
        "ጆ",
        -8.976648647612773
      ],
      [
        "▁ግልጽ",
        -8.97692559784027
      ],
      [
        "መር",
        -8.978188007687901
      ],
      [
        "ገር",
        -8.980298084873992
      ],
      [
        "▁ቦታዎች",
        -8.983358485315431
      ],
      [
        "▁ሰላማዊ",
        -8.985563041355334
      ],
      [
        "▁ቫይረስ",
        -8.986108774034825
      ],
      [
        "▁እንድት",
        -8.986200036182407
      ],
      [
        "▁ዉስጥ",
        -8.9869222277201
      ],
      [
        "▁ጌታ",
        -8.986962289192672
      ],
      [
        "▁ሰባት",
        -8.98732942244207
      ],
      [
        "▁አር",
        -8.988226422374526
      ],
      [
        "▁አባት",
        -8.988689777792871
      ],
      [
        "▁የልማት",
        -8.989450479322652
      ],
      [
        "▁ዋንጫ",
        -8.994582281035067
      ],
      [
        "▁እንደገና",
        -8.995565440903654
      ],
      [
        "ኩት",
        -8.995658357377716
      ],
      [
        "ጄ",
        -8.996347183597452
      ],
      [
        "▁ሁለተኛ",
        -8.996414580850049
      ],
      [
        "▁ለተ",
        -8.997741381561111
      ],
      [
        "▁ሁሉንም",
        -8.998480864363387
      ],
      [
        "▁አማራጭ",
        -8.99973868213201
      ],
      [
        "▁የተለየ",
        -9.001054133488212
      ],
      [
        "▁ደስታ",
        -9.002127254946558
      ],
      [
        "▁እንደሚያ",
        -9.003623445709987
      ],
      [
        "▁14",
        -9.003868185185405
      ],
      [
        "▁አልተ",
        -9.004667304583768
      ],
      [
        "▁የሕዝብ",
        -9.004908160223149
      ],
      [
        "ማር",
        -9.005268046515818
      ],
      [
        "1",
        -9.00668012614706
      ],
      [
        "▁ኢህአዴግ",
        -9.006750732234371
      ],
      [
        "▁የሚሉ",
        -9.00949615598502
      ],
      [
        "▁ጥር",
        -9.00967841948414
      ],
      [
        "▁የአንድ",
        -9.009907005591018
      ],
      [
        "▁ግብር",
        -9.01005883099463
      ],
      [
        "▁ይላሉ",
        -9.01020889760973
      ],
      [
        "▁ትግራይ",
        -9.015986057311167
      ],
      [
        "▁የለውም",
        -9.01622033477839
      ],
      [
        "ኖር",
        -9.01624854801579
      ],
      [
        "▁ዘገባ",
        -9.016971205545044
      ],
      [
        "▁ሀሳብ",
        -9.02036016910689
      ],
      [
        "▁ዓም",
        -9.02046986637206
      ],
      [
        "▁በራሱ",
        -9.02070547653998
      ],
      [
        "▁ኦሮሞ",
        -9.021026907547231
      ],
      [
        "▁ግራ",
        -9.021365687313228
      ],
      [
        "ታዊ",
        -9.022353695488084
      ],
      [
        "0",
        -9.024155299465049
      ],
      [
        "▁ደቡብ",
        -9.026438937775106
      ],
      [
        "ሾ",
        -9.028199768207084
      ],
      [
        "▁ባህል",
        -9.029086950017142
      ],
      [
        "▁ግድብ",
        -9.03121174671655
      ],
      [
        "▁ማርያም",
        -9.031247009405476
      ],
      [
        "▁ምንጭ",
        -9.031318790157924
      ],
      [
        "ላል",
        -9.03451456500553
      ],
      [
        "▁ከሌሎች",
        -9.034617184814074
      ],
      [
        "ኢ",
        -9.035074051532773
      ],
      [
        "▁አቡነ",
        -9.036158141422913
      ],
      [
        "▁ሃገር",
        -9.036960893089558
      ],
      [
        "▁ጳውሎስ",
        -9.037847383820589
      ],
      [
        "ነታቸው",
        -9.039239843910178
      ],
      [
        "▁እናንተ",
        -9.03968720668199
      ],
      [
        "▁ብት",
        -9.039779693023592
      ],
      [
        "ታቸውን",
        -9.040656693462587
      ],
      [
        "▁ኮሚሽን",
        -9.041516294291537
      ],
      [
        "▁በቀላሉ",
        -9.044931325524532
      ],
      [
        "▁ቢያንስ",
        -9.04602559261771
      ],
      [
        "መራ",
        -9.046597335176765
      ],
      [
        "▁ስጋት",
        -9.046848450236643
      ],
      [
        "▁ማዕከል",
        -9.047311122533229
      ],
      [
        "▁መንፈሳዊ",
        -9.047666894752268
      ],
      [
        "›",
        -9.047878277296014
      ],
      [
        "ጓ",
        -9.048600126556195
      ],
      [
        "▁ወይስ",
        -9.050029930653286
      ],
      [
        "ደር",
        -9.050935522075386
      ],
      [
        "▁16",
        -9.05117981202879
      ],
      [
        "ቺ",
        -9.051906951734972
      ],
      [
        "▁እርዳታ",
        -9.053045461275552
      ],
      [
        "▁ሕገ",
        -9.053132677450426
      ],
      [
        "ያቸው",
        -9.05394246255588
      ],
      [
        "ፖ",
        -9.055496822843098
      ],
      [
        "▁18",
        -9.057008208675091
      ],
      [
        "▁ሰዎችን",
        -9.05720627407688
      ],
      [
        "▁የኢኮኖሚ",
        -9.058483669386485
      ],
      [
        "▁በምን",
        -9.058878080876266
      ],
      [
        "ፒ",
        -9.060182329851704
      ],
      [
        "▁ህዝቦች",
        -9.0615332679694
      ],
      [
        "ጤ",
        -9.061620318790007
      ],
      [
        "▁ሰልፍ",
        -9.063034709887528
      ],
      [
        "▁ጎን",
        -9.066697307673818
      ],
      [
        "▁አዲሱ",
        -9.067710442821182
      ],
      [
        "▁ድርጊት",
        -9.068113024702829
      ],
      [
        "▁ግዜ",
        -9.0688072010581
      ],
      [
        "▁በሽታ",
        -9.069655292525708
      ],
      [
        "▁13",
        -9.072554656229658
      ],
      [
        "▁አመለካከት",
        -9.073011656377496
      ],
      [
        "▁አይደለም።",
        -9.073295847016489
      ],
      [
        "▁እንግዲህ",
        -9.074441493212923
      ],
      [
        "▁የምታ",
        -9.075203273831589
      ],
      [
        "▁ይገኛል",
        -9.075325679597444
      ],
      [
        "▁ሪፖርት",
        -9.075483444313043
      ],
      [
        "▁ወጥ",
        -9.076134954958937
      ],
      [
        "▁በይፋ",
        -9.07766586191362
      ],
      [
        "▁በተያያዘ",
        -9.079418513677382
      ],
      [
        "▁መጨረሻ",
        -9.080039051221226
      ],
      [
        "ሎች",
        -9.0801504396227
      ],
      [
        "▁አልነበረም",
        -9.080317150638166
      ],
      [
        "ኃ",
        -9.080976564778949
      ],
      [
        "▁ወጪ",
        -9.081154914436889
      ],
      [
        "ቪ",
        -9.082862155026886
      ],
      [
        "▁በሌሎች",
        -9.086556410667972
      ],
      [
        "▁25",
        -9.09032759554922
      ],
      [
        "▁24",
        -9.091214548590347
      ],
      [
        "▁በጎ",
        -9.09603716066212
      ],
      [
        "▁በግልጽ",
        -9.097144147690424
      ],
      [
        "▁ምልክት",
        -9.103468056396704
      ],
      [
        "▁በተደጋጋሚ",
        -9.10414474756637
      ],
      [
        "▁ያላቸውን",
        -9.104177819585503
      ],
      [
        "▁ክፍያ",
        -9.10575169498143
      ],
      [
        "▁ስድስት",
        -9.10615172244652
      ],
      [
        "▁መፍትሄ",
        -9.107024167526134
      ],
      [
        "▁መነሻ",
        -9.10856967624575
      ],
      [
        "▁ኃላፊነት",
        -9.109588752098816
      ],
      [
        "▁የአየር",
        -9.110436450738828
      ],
      [
        "▁ድርሻ",
        -9.11246401553356
      ],
      [
        "በታል",
        -9.112525924939696
      ],
      [
        "▁የሚሉት",
        -9.113412442453924
      ],
      [
        "▁እንደማይ",
        -9.114654618478877
      ],
      [
        "▁የሚያስችል",
        -9.114799601633552
      ],
      [
        "▁አብሮ",
        -9.115405668053594
      ],
      [
        "▁እኔም",
        -9.115677789427776
      ],
      [
        "“",
        -9.117894812853706
      ],
      [
        "▁ዘመቻ",
        -9.11974387063234
      ],
      [
        "▁ነፃነት",
        -9.119775383123558
      ],
      [
        "ሆን",
        -9.121442632274135
      ],
      [
        "▁እንደዚህ",
        -9.121612638555918
      ],
      [
        "▁እንድ",
        -9.123231279073083
      ],
      [
        "▁ኢኮኖሚ",
        -9.124623375325196
      ],
      [
        "▁የእ",
        -9.124668701030902
      ],
      [
        "▁ወሳኝ",
        -9.124751972444225
      ],
      [
        "▁መጠቀም",
        -9.126048850120512
      ],
      [
        "▁እድገት",
        -9.12715011756588
      ],
      [
        "ረዳ",
        -9.127596050278878
      ],
      [
        "▁የመጀመሪያው",
        -9.128853892823578
      ],
      [
        "▁ኤርትራ",
        -9.129064965314566
      ],
      [
        "▁ጣቢያ",
        -9.129906877003654
      ],
      [
        "▁ጥበብ",
        -9.129978606768969
      ],
      [
        "▁ምሳሌ",
        -9.131084341644891
      ],
      [
        "ፈር",
        -9.132063250170576
      ],
      [
        "▁ብሄራዊ",
        -9.13356844465509
      ],
      [
        "▁ብሏል",
        -9.134816357930037
      ],
      [
        "▁ተቀባይነት",
        -9.13782736147275
      ],
      [
        "▁፦",
        -9.139376452427893
      ],
      [
        "▁ፕሮጀክት",
        -9.13953075517213
      ],
      [
        "▁ማስረጃ",
        -9.139994029386246
      ],
      [
        "▁እናም",
        -9.140091261105896
      ],
      [
        "▁ፖለቲካዊ",
        -9.144055595388446
      ],
      [
        "]",
        -9.144713353269797
      ],
      [
        "▁በአማራ",
        -9.14561302659452
      ],
      [
        "▁መንግሥታት",
        -9.145887602106669
      ],
      [
        "▁በደቡብ",
        -9.146018480389923
      ],
      [
        "▁ህዝቡ",
        -9.148758763064093
      ],
      [
        "▁እንዳለው",
        -9.150210200239322
      ],
      [
        "▁ህብረት",
        -9.150361991299638
      ],
      [
        "▁ኪሎ",
        -9.152418194936992
      ],
      [
        "▁ዝርዝር",
        -9.152466267499962
      ],
      [
        "▁ፈተና",
        -9.15250485577059
      ],
      [
        "▁ፕሬዝዳንት",
        -9.153144436137447
      ],
      [
        "▁ይዘው",
        -9.154786802427882
      ],
      [
        "▁ወይንም",
        -9.156253709930212
      ],
      [
        "▁የሰላም",
        -9.156514821609203
      ],
      [
        "▁ተደርጎ",
        -9.1567541218146
      ],
      [
        "▁ክልሎች",
        -9.156916411281417
      ],
      [
        "▁በቀጥታ",
        -9.157457552723413
      ],
      [
        "▁ማወቅ",
        -9.157773360139942
      ],
      [
        "▁በመጠቀም",
        -9.158104444009908
      ],
      [
        "▁መንገዶች",
        -9.158498903358703
      ],
      [
        "ፈራ",
        -9.159605933824084
      ],
      [
        "▁የክልሉ",
        -9.160876975583015
      ],
      [
        "▁ቡድኖች",
        -9.1624101092507
      ],
      [
        "▁ምርጥ",
        -9.16282822250141
      ],
      [
        "ሰማ",
        -9.163216100690311
      ],
      [
        "ደን",
        -9.167400426393325
      ],
      [
        "▁ብዛት",
        -9.167849816013144
      ],
      [
        "▁ማለትም",
        -9.169017517508138
      ],
      [
        "▁በሰላም",
        -9.169280654057689
      ],
      [
        "ሞት",
        -9.170761295575783
      ],
      [
        "▁ግዛት",
        -9.171400145603494
      ],
      [
        "▁ለማለት",
        -9.17161321635603
      ],
      [
        "▁ማንኛውም",
        -9.172551724981366
      ],
      [
        "▁ዘጠኝ",
        -9.173159062994426
      ],
      [
        "▁በስተቀር",
        -9.17321565424431
      ],
      [
        "▁መስ",
        -9.173877656478531
      ],
      [
        "▁17",
        -9.174127677194653
      ],
      [
        "ነቱን",
        -9.174489054459618
      ],
      [
        "▁ለመስጠት",
        -9.174935127309189
      ],
      [
        "▁የሌለው",
        -9.175942271063604
      ],
      [
        "ነሳ",
        -9.17654079032527
      ],
      [
        "▁ዋናው",
        -9.176667406393223
      ],
      [
        "▁መስራት",
        -9.17683871276639
      ],
      [
        "ጐ",
        -9.177472178385502
      ],
      [
        "▁ቢያ",
        -9.177803612918588
      ],
      [
        "▁እንድን",
        -9.17797610238654
      ],
      [
        "ቷል",
        -9.179800451076334
      ],
      [
        "▁መኪና",
        -9.180004570148064
      ],
      [
        "ጠራ",
        -9.181802466086388
      ],
      [
        "▁የምና",
        -9.184294271417606
      ],
      [
        "▁ስህተት",
        -9.18443769507186
      ],
      [
        "▁እንጅ",
        -9.18457090236238
      ],
      [
        "ሠራ",
        -9.18541623212916
      ],
      [
        "▁ማንነት",
        -9.18640272488889
      ],
      [
        "▁ኃይሎች",
        -9.18654108300314
      ],
      [
        "▁መሳሪያ",
        -9.187348299473202
      ],
      [
        "▁ፈጣሪ",
        -9.188166345725165
      ],
      [
        "▁ህገ",
        -9.188344098942164
      ],
      [
        "▁ሚዲያ",
        -9.189845362231646
      ],
      [
        "▁አጠቃላይ",
        -9.190110628387766
      ],
      [
        "ዎን",
        -9.190375849156196
      ],
      [
        "▁ወደፊት",
        -9.191854534438583
      ],
      [
        "▁እውነተኛ",
        -9.194460286389951
      ],
      [
        "▁ዛሬም",
        -9.194652662332883
      ],
      [
        "▁መስከረም",
        -9.196124835172515
      ],
      [
        "▁የወያኔ",
        -9.1965638372069
      ],
      [
        "▁‹",
        -9.197467774125702
      ],
      [
        "▁ጋዜጠኛ",
        -9.199321271483685
      ],
      [
        "▁ደብዳቤ",
        -9.201157093760326
      ],
      [
        "ረው",
        -9.202892527218
      ],
      [
        "▁ድምጽ",
        -9.203837970560947
      ],
      [
        "▁በጀት",
        -9.204596998673894
      ],
      [
        "▁ሃይል",
        -9.205128842692584
      ],
      [
        "▁የሆነውን",
        -9.205492007085155
      ],
      [
        "▁ሙከራ",
        -9.205530212405858
      ],
      [
        "▁ሥነ",
        -9.205657394391004
      ],
      [
        "▁አይደለም፡፡",
        -9.205807911702628
      ],
      [
        "▁ይሄን",
        -9.207024708022884
      ],
      [
        "ሂ",
        -9.208162837714635
      ],
      [
        "▁መልዕክት",
        -9.208189228631806
      ],
      [
        "▁በእርግጥ",
        -9.209507750979082
      ],
      [
        "▁ሰሞኑን",
        -9.212995023792752
      ],
      [
        "▁በተመሳሳይ",
        -9.213578590987437
      ],
      [
        "▁እርስ",
        -9.214383220491545
      ],
      [
        "▁ግንባር",
        -9.215080916588809
      ],
      [
        "▁እስር",
        -9.21561236787633
      ],
      [
        "▁ብቃት",
        -9.215885433297414
      ],
      [
        "▁ልት",
        -9.216975378946998
      ],
      [
        "ራቸው",
        -9.217118545317875
      ],
      [
        "▁ለማወቅ",
        -9.21830120652266
      ],
      [
        "▁መከራ",
        -9.218819787675216
      ],
      [
        "▁አድ",
        -9.219059335295984
      ],
      [
        "መጣ",
        -9.22003217429661
      ],
      [
        "▁ሁለቱ",
        -9.221135287597637
      ],
      [
        "▁የሚቆጠሩ",
        -9.221333670566588
      ],
      [
        "▁ለመከላከል",
        -9.221967555172318
      ],
      [
        "▁በሁለት",
        -9.22362082783227
      ],
      [
        "▁አለመ",
        -9.22391644012177
      ],
      [
        "▁መጣ",
        -9.22472616079942
      ],
      [
        "▁ቤተክርስቲያን",
        -9.22570259370868
      ],
      [
        "▁ኑሮ",
        -9.22609839230932
      ],
      [
        "በላ",
        -9.226374764650668
      ],
      [
        "▁መመሪያ",
        -9.22935069368389
      ],
      [
        "▁አማካኝነት",
        -9.229689643907724
      ],
      [
        "▁አይችልም",
        -9.229895577388838
      ],
      [
        "▁ሜዳ",
        -9.22992333728151
      ],
      [
        "▁ምንድን",
        -9.230387786335246
      ],
      [
        "▁ቴክኖሎጂ",
        -9.232957455501673
      ],
      [
        "▁የኔ",
        -9.232961387473065
      ],
      [
        "ድር",
        -9.2331225203591
      ],
      [
        "▁ደህንነት",
        -9.233261732168485
      ],
      [
        "▁ያሉትን",
        -9.233334520626835
      ],
      [
        "▁እንዲሁ",
        -9.233612849185455
      ],
      [
        "ማል",
        -9.234734416985916
      ],
      [
        "▁በመስጠት",
        -9.235728838840712
      ],
      [
        "▁አብ",
        -9.236172159080702
      ],
      [
        "▁ማህበረሰብ",
        -9.237345773307396
      ],
      [
        "▁ኩባንያ",
        -9.237982375102463
      ],
      [
        "▁ዴሞክራሲያዊ",
        -9.238813415496658
      ],
      [
        "ሰብ",
        -9.239164616418972
      ],
      [
        "▁አለባቸው",
        -9.241358490472129
      ],
      [
        "▁በሚያ",
        -9.242783619657654
      ],
      [
        "▁ጠቃሚ",
        -9.242975348836133
      ],
      [
        "▁ስፍራ",
        -9.243855745519935
      ],
      [
        "▁ማህበር",
        -9.244638745327393
      ],
      [
        "▁የሚሰጡዋቸውን",
        -9.24527287006776
      ],
      [
        "ቶቹ",
        -9.24608251497702
      ],
      [
        "▁የቀድሞ",
        -9.246161463336808
      ],
      [
        "▁ይቅርታ",
        -9.247578231454794
      ],
      [
        "▁ለመሆን",
        -9.249845169365017
      ],
      [
        "▁አንፃር",
        -9.25365456900475
      ],
      [
        "▁ልምድ",
        -9.253677945258977
      ],
      [
        "▁ለአ",
        -9.254141334316891
      ],
      [
        "▁ወዘተ",
        -9.25507751345232
      ],
      [
        "▁ሆኗል",
        -9.257773583229122
      ],
      [
        "▁ግለሰብ",
        -9.258782302126376
      ],
      [
        "▁የምግብ",
        -9.25987415322017
      ],
      [
        "▁ተወካዮች",
        -9.260064524640548
      ],
      [
        "▁የቤተ",
        -9.26091786980916
      ],
      [
        "▁ትክክለኛ",
        -9.263768771191884
      ],
      [
        "▁የቤት",
        -9.264731297869131
      ],
      [
        "▁የደቡብ",
        -9.264865191416858
      ],
      [
        "▁ሃይማኖት",
        -9.265414422237685
      ],
      [
        "▁ያላ",
        -9.265633142549392
      ],
      [
        "▁መር",
        -9.268462343616385
      ],
      [
        "▁ባሻገር",
        -9.269080260107582
      ],
      [
        "▁ሰኔ",
        -9.270841463238344
      ],
      [
        "▁21",
        -9.272152241298087
      ],
      [
        "▁ጫና",
        -9.273889564444918
      ],
      [
        "ጠፋ",
        -9.274257663386845
      ],
      [
        "▁ቁጥጥር",
        -9.274605238425734
      ],
      [
        "▁ለአንድ",
        -9.276810959011964
      ],
      [
        "ክስ",
        -9.276832223907984
      ],
      [
        "ያችን",
        -9.277062876943818
      ],
      [
        "ቀው",
        -9.278301004123652
      ],
      [
        "▁ክፉ",
        -9.278638440869502
      ],
      [
        "▁ታሪካዊ",
        -9.279389434400697
      ],
      [
        "▁(በ",
        -9.279398121826231
      ],
      [
        "▁ያደረገ",
        -9.279703040964543
      ],
      [
        "▁የአምላክ",
        -9.28101702546911
      ],
      [
        "▁ችግሩ",
        -9.281889095357702
      ],
      [
        "▁ጋዜጣ",
        -9.281923799074546
      ],
      [
        "▁ደሞ",
        -9.281967025377377
      ],
      [
        "▁በሁሉም",
        -9.282609671996918
      ],
      [
        "▁ያደረገው",
        -9.282624703752951
      ],
      [
        "▁ጨዋታዎች",
        -9.283418480825906
      ],
      [
        "▁የይሖዋ",
        -9.286019025803176
      ],
      [
        "▁ሳያ",
        -9.28714079173937
      ],
      [
        "ዞ",
        -9.28729669632734
      ],
      [
        "▁እቅድ",
        -9.289457429414044
      ],
      [
        "ኅ",
        -9.29103699645153
      ],
      [
        "▁መቼ",
        -9.291576659840848
      ],
      [
        "▁27",
        -9.291889684180903
      ],
      [
        "▁የምርጫ",
        -9.291973340020506
      ],
      [
        "▁22",
        -9.293293672448264
      ],
      [
        "▁ስራዎች",
        -9.293471496426449
      ],
      [
        "▁ብርሃን",
        -9.294160180982022
      ],
      [
        "▁ፖሊሲ",
        -9.294809204849212
      ],
      [
        "▁ተሳትፎ",
        -9.295216534214951
      ],
      [
        "▁መንግስታት",
        -9.296231921205218
      ],
      [
        "▁የሕግ",
        -9.29626905041863
      ],
      [
        "ችንን",
        -9.296372264472213
      ],
      [
        "▁ያስፈልጋል",
        -9.296498872692093
      ],
      [
        "▁ወንድ",
        -9.297094481102471
      ],
      [
        "▁እንዳለበት",
        -9.299653417586075
      ],
      [
        "ቢያ",
        -9.300557287806685
      ],
      [
        "▁ሁኔታዎች",
        -9.300620828831478
      ],
      [
        "▁በአሜሪካ",
        -9.3010841794297
      ],
      [
        "ጠው",
        -9.301231276998376
      ],
      [
        "▁እጥረት",
        -9.301905986461154
      ],
      [
        "▁ብላ",
        -9.3019843645087
      ],
      [
        "▁ዳይሬክተር",
        -9.303123805412458
      ],
      [
        "ቫ",
        -9.303137652676856
      ],
      [
        "ሚያ",
        -9.303793559945737
      ],
      [
        "በረ",
        -9.305909867134918
      ],
      [
        "▁ራስ",
        -9.305942959768354
      ],
      [
        "▁2013",
        -9.306969682253252
      ],
      [
        "ሼ",
        -9.307103634162308
      ],
      [
        "▁ፍሬ",
        -9.307134804502695
      ],
      [
        "ኤ",
        -9.30716346627399
      ],
      [
        "ልህ",
        -9.3076967275712
      ],
      [
        "▁ጉዳዩ",
        -9.30787644169104
      ],
      [
        "▁ማህበራዊ",
        -9.308472792000574
      ],
      [
        "▁ምናልባት",
        -9.30891749038178
      ],
      [
        "▁ሊቀ",
        -9.3089360237076
      ],
      [
        "▁የሚችሉ",
        -9.308990103914374
      ],
      [
        "▁በብዙ",
        -9.309830953504065
      ],
      [
        "▁እኛም",
        -9.310782284338556
      ],
      [
        "▁ጊዮርጊስ",
        -9.310856838556935
      ],
      [
        "▁ቤተሰብ",
        -9.31152619367377
      ],
      [
        "ሟ",
        -9.312330301862476
      ],
      [
        "▁ስታ",
        -9.312411655729353
      ],
      [
        "ዌ",
        -9.313538573156388
      ],
      [
        "▁ዐ",
        -9.31364547624318
      ],
      [
        "▁ዜጋ",
        -9.31429232815889
      ],
      [
        "▁ግርማ",
        -9.315562145975306
      ],
      [
        "▁ሃገራት",
        -9.315879252393753
      ],
      [
        "▁አላቸው",
        -9.316348735468976
      ],
      [
        "▁ብለዋል።",
        -9.316655409408868
      ],
      [
        "ሰር",
        -9.317627226761685
      ],
      [
        "▁አልባ",
        -9.317678127103733
      ],
      [
        "▁ካልሆነ",
        -9.318749126716424
      ],
      [
        "▁ሰራዊት",
        -9.318758469179942
      ],
      [
        "ወራ",
        -9.319438206708783
      ],
      [
        "▁በፍጥነት",
        -9.320795669350606
      ],
      [
        "▁ራሳቸውን",
        -9.321690773702976
      ],
      [
        "ደረ",
        -9.322283477382827
      ],
      [
        "▁ይመስላል",
        -9.322562051795131
      ],
      [
        "▁ነህ",
        -9.323124782162472
      ],
      [
        "ሁት",
        -9.323633752045016
      ],
      [
        "▁የአገር",
        -9.324409643681454
      ],
      [
        "▁እናት",
        -9.325163133445896
      ],
      [
        "ላይ",
        -9.32557975477002
      ],
      [
        "▁ቃለ",
        -9.325794944443825
      ],
      [
        "5",
        -9.325846006677084
      ],
      [
        "▁ሥራዎች",
        -9.326059564475118
      ],
      [
        "ሄድ",
        -9.326488703331073
      ],
      [
        "ውያን",
        -9.326872371808022
      ],
      [
        "ዶች",
        -9.328736717319895
      ],
      [
        "▁ተራ",
        -9.329143493056474
      ],
      [
        "▁እውቀት",
        -9.329198737386475
      ],
      [
        "▁ማቅረብ",
        -9.32973604387467
      ],
      [
        "▁በቀለ",
        -9.330133991207596
      ],
      [
        "▁ብለዋል፡፡",
        -9.33104063135157
      ],
      [
        "▁ዘመናዊ",
        -9.332642184371553
      ],
      [
        "▁ለዚህም",
        -9.333746945810294
      ],
      [
        "▁ዕቅድ",
        -9.334865532085466
      ],
      [
        "▁አስመልክቶ",
        -9.335079652633324
      ],
      [
        "▁መረጃዎች",
        -9.335095127098334
      ],
      [
        "▁ከሁለት",
        -9.33563008598223
      ],
      [
        "ተዋል",
        -9.335914828634316
      ],
      [
        "▁አስቸጋሪ",
        -9.335933545525846
      ],
      [
        "▁በትግራይ",
        -9.336105920899367
      ],
      [
        "ዥ",
        -9.336137622796556
      ],
      [
        "▁ስላ",
        -9.336167025129193
      ],
      [
        "▁እሳት",
        -9.336742614862793
      ],
      [
        "▁ከዚህም",
        -9.337425286892737
      ],
      [
        "▁አርሶ",
        -9.337454071631184
      ],
      [
        "▁በውጭ",
        -9.338322760938356
      ],
      [
        "ከር",
        -9.339314455709244
      ],
      [
        "▁ሆይ",
        -9.339537231241952
      ],
      [
        "▁ጥፋት",
        -9.339601570763802
      ],
      [
        "▁ስለሆነም",
        -9.339964808507174
      ],
      [
        "ቀር",
        -9.3412413928688
      ],
      [
        "▁ምክንያቶች",
        -9.342218365621804
      ],
      [
        "▁ጥራት",
        -9.342235118478191
      ],
      [
        "▁በዛሬው",
        -9.343295350136389
      ],
      [
        "▁መገናኛ",
        -9.343429551062998
      ],
      [
        "▁አባቶች",
        -9.344301073878718
      ],
      [
        "▁አለኝ",
        -9.345373603027957
      ],
      [
        "▁ባለስልጣናት",
        -9.346133127323093
      ],
      [
        "▁በአግባቡ",
        -9.346404362375957
      ],
      [
        "▁የመጣ",
        -9.346613780391694
      ],
      [
        "▁ብሔር",
        -9.347121804448028
      ],
      [
        "▁|",
        -9.34834558970345
      ],
      [
        "▁የሚኖሩ",
        -9.348623924208784
      ],
      [
        "▁የሚሆነው",
        -9.34870250186102
      ],
      [
        "▁የኦሮሚያ",
        -9.349210550615178
      ],
      [
        "▁ወታደራዊ",
        -9.350811577289123
      ],
      [
        "▁ጎንደር",
        -9.351331302942638
      ],
      [
        "▁[",
        -9.35138670481258
      ],
      [
        "▁ሆስፒታል",
        -9.351552142400562
      ],
      [
        "▁የተባለ",
        -9.351914643405546
      ],
      [
        "▁በሰው",
        -9.352009792224193
      ],
      [
        "▁አነስተኛ",
        -9.352101464615288
      ],
      [
        "6",
        -9.3532578840728
      ],
      [
        "▁ጽሑፍ",
        -9.35373899775726
      ],
      [
        "▁የዘር",
        -9.354672343680503
      ],
      [
        "▁ቦርድ",
        -9.355146443556343
      ],
      [
        "▁ሕዝቦች",
        -9.356314720458627
      ],
      [
        "▁በአፍሪካ",
        -9.356579727773148
      ],
      [
        "▁ነገሮችን",
        -9.35688871602502
      ],
      [
        "ታችሁ",
        -9.357161314399068
      ],
      [
        "▁ገልጸዋል",
        -9.358020379686009
      ],
      [
        "▁ቆይታ",
        -9.358388084820776
      ],
      [
        "▁ጠላት",
        -9.35873473128691
      ],
      [
        "▁እርስዎ",
        -9.36044071104171
      ],
      [
        "▁ቡድኑ",
        -9.361043859941775
      ],
      [
        "▁እኩል",
        -9.3619228023558
      ],
      [
        "▁በኦሮሚያ",
        -9.362442615052046
      ],
      [
        "▁እንደሚገባ",
        -9.362762552848215
      ],
      [
        "▁በቁጥጥር",
        -9.363234888435882
      ],
      [
        "▁ዮሐንስ",
        -9.36331473448653
      ],
      [
        "▁ዋስትና",
        -9.365667231706396
      ],
      [
        "4",
        -9.36652943091471
      ],
      [
        "▁በእ",
        -9.367696181753708
      ],
      [
        "▁ስቴትስ",
        -9.368368292770429
      ],
      [
        "▁አፍ",
        -9.370402820825571
      ],
      [
        "▁እያስ",
        -9.370452574138422
      ],
      [
        "ሃል",
        -9.370693739747868
      ],
      [
        "▁ቀውስ",
        -9.371851100727689
      ],
      [
        "▁23",
        -9.373965454223828
      ],
      [
        "ጢ",
        -9.376848502145709
      ],
      [
        "▁ባለሙያ",
        -9.376890164015354
      ],
      [
        "▁ቀርቶ",
        -9.377440410538656
      ],
      [
        "ችል",
        -9.37748720386166
      ],
      [
        "▁አገዛዝ",
        -9.377776494821164
      ],
      [
        "መለስ",
        -9.37994013464724
      ],
      [
        "▁የሚባለው",
        -9.380681018397622
      ],
      [
        "▁ዓመቱ",
        -9.381107033450524
      ],
      [
        "▁የህግ",
        -9.381435670801636
      ],
      [
        "▁ክርስቲያኖች",
        -9.382222688589463
      ],
      [
        "▁መፍትሔ",
        -9.38391297443241
      ],
      [
        "▁አጀንዳ",
        -9.384743731394249
      ],
      [
        "▁ውድ",
        -9.385148051804627
      ],
      [
        "▁ፕሮፌሰር",
        -9.385613286803752
      ],
      [
        "▁ቅዱሳን",
        -9.38574456507971
      ],
      [
        "▁ይሁንና",
        -9.389772726086584
      ],
      [
        "▁አንዲት",
        -9.391049763906866
      ],
      [
        "▁አም",
        -9.391557407281285
      ],
      [
        "▁የኢትዮጵያን",
        -9.391785020293678
      ],
      [
        "▁አሰ",
        -9.392011133684749
      ],
      [
        "▁እንደሆኑ",
        -9.39212255306078
      ],
      [
        "▁መሆናቸው",
        -9.392133053191296
      ],
      [
        "▁ዕድገት",
        -9.392433751766031
      ],
      [
        "▁ውኃ",
        -9.393359182321948
      ],
      [
        "ኞች",
        -9.394807591843408
      ],
      [
        "▁ግዴታ",
        -9.395182444889333
      ],
      [
        "▁ቃላት",
        -9.395223858955683
      ],
      [
        "ከረ",
        -9.39672949509688
      ],
      [
        "▁የኤርትራ",
        -9.397412705850083
      ],
      [
        "▁የታሪክ",
        -9.397428008603226
      ],
      [
        "▁ዳዊት",
        -9.398539272839075
      ],
      [
        "ክል",
        -9.399273992092926
      ],
      [
        "▁ግንዛቤ",
        -9.401961222765683
      ],
      [
        "▁በማሰብ",
        -9.402503699693488
      ],
      [
        "▁የበላይነት",
        -9.404434008747838
      ],
      [
        "▁ድንበር",
        -9.404738954850664
      ],
      [
        "▁ተቃዋሚ",
        -9.40560308212495
      ],
      [
        "▁የሚሆን",
        -9.406324235775848
      ],
      [
        "ሶች",
        -9.40864397807225
      ],
      [
        "▁ኩባንያዎች",
        -9.4100920956128
      ],
      [
        "ሰጥ",
        -9.410471207288658
      ],
      [
        "ገዛ",
        -9.410710123960154
      ],
      [
        "ረግ",
        -9.411299134909108
      ],
      [
        "▁እንዳል",
        -9.411359115179804
      ],
      [
        "▁በደንብ",
        -9.41158144529106
      ],
      [
        "▁ዘዴ",
        -9.413045057851187
      ],
      [
        "▁አታ",
        -9.41409014954894
      ],
      [
        "▁መናገር",
        -9.4162818873788
      ],
      [
        "ሳይ",
        -9.416325596466391
      ],
      [
        "▁የአገሪቱ",
        -9.41684653169184
      ],
      [
        "▁እድሜ",
        -9.417690933486623
      ],
      [
        "▁ተብለው",
        -9.417880037894228
      ],
      [
        "▁አላማ",
        -9.418100452731249
      ],
      [
        "ቃል",
        -9.418787971047736
      ],
      [
        "▁ጀርመን",
        -9.41914820378635
      ],
      [
        "▁በሚገባ",
        -9.419898394184232
      ],
      [
        "ብር",
        -9.421398655083095
      ],
      [
        "▁አንቀጽ",
        -9.422833725554188
      ],
      [
        "▁ሠራተኞች",
        -9.423256269041392
      ],
      [
        "▁ነጋ",
        -9.423662563487134
      ],
      [
        "▁ርዕሰ",
        -9.423935344202476
      ],
      [
        "▁ትክክል",
        -9.424169271410651
      ],
      [
        "▁የመጨረሻ",
        -9.424796963438231
      ],
      [
        "▁የሀገር",
        -9.42503958768486
      ],
      [
        "▁ፍትህ",
        -9.428327129700358
      ],
      [
        "▁ሆቴል",
        -9.428359643025358
      ],
      [
        "▁ችሎታ",
        -9.428785242627592
      ],
      [
        "▁ብለህ",
        -9.428864229281062
      ],
      [
        "▁ወንዶች",
        -9.431146381402122
      ],
      [
        "▁ተሰ",
        -9.431704155216744
      ],
      [
        "▁ምሁራን",
        -9.431706143390404
      ],
      [
        "▁በቀጣይ",
        -9.43213127282049
      ],
      [
        "▁ቀድሞ",
        -9.432438272475624
      ],
      [
        "▁አና",
        -9.433622952434778
      ],
      [
        "▁ነው”",
        -9.434221808447647
      ],
      [
        "ቸዉ",
        -9.434613443849509
      ],
      [
        "ፈን",
        -9.43487987343477
      ],
      [
        "▁የዛሬ",
        -9.434918699220374
      ],
      [
        "▁ተማሪ",
        -9.435185109794151
      ],
      [
        "▁ጀግና",
        -9.43610123372053
      ],
      [
        "▁አሸናፊ",
        -9.436390474769164
      ],
      [
        "▁በመጀመሪያ",
        -9.436518369541515
      ],
      [
        "▁ምንጮች",
        -9.43654903880893
      ],
      [
        "ኣ",
        -9.438656782106818
      ],
      [
        "ጩ",
        -9.439008470144064
      ],
      [
        "▁የእኛ",
        -9.439684846868612
      ],
      [
        "▁ዐቢይ",
        -9.439995243518602
      ],
      [
        "▁አንጻር",
        -9.44079508848329
      ],
      [
        "▁ስፖርት",
        -9.441350037422966
      ],
      [
        "▁መጥፎ",
        -9.442220284765996
      ],
      [
        "ቭ",
        -9.443114036426932
      ],
      [
        "▁ካሉ",
        -9.44419527085403
      ],
      [
        "▁በረከት",
        -9.44443637803421
      ],
      [
        "▁ካለው",
        -9.445174743834176
      ],
      [
        "▁የአውሮፓ",
        -9.445213510917132
      ],
      [
        "▁ጥቅምት",
        -9.445493875032192
      ],
      [
        "▁ፎቶ",
        -9.445947805332771
      ],
      [
        "▁ማሰብ",
        -9.448092756135804
      ],
      [
        "▁ዕድሜ",
        -9.448989936753648
      ],
      [
        "▁2010",
        -9.450023027803091
      ],
      [
        "▁ሳን",
        -9.45010304558902
      ],
      [
        "▁ቅጣት",
        -9.45035258738524
      ],
      [
        "▁በትክክል",
        -9.45056167256895
      ],
      [
        "▁ተናግረዋል፡፡",
        -9.450840068104387
      ],
      [
        "▁በአገሪቱ",
        -9.450857676369589
      ],
      [
        "▁የሚገኝ",
        -9.45154492457315
      ],
      [
        "▁ዙር",
        -9.4525069669461
      ],
      [
        "▁ንጉሥ",
        -9.452777774925757
      ],
      [
        "▁እንዳሉ",
        -9.453275131331475
      ],
      [
        "▁ካሳ",
        -9.453604821942314
      ],
      [
        "▁በበኩላቸው",
        -9.454384869803304
      ],
      [
        "▁ጌታቸው",
        -9.454448730396336
      ],
      [
        "▁አፍሪቃ",
        -9.456011513702991
      ],
      [
        "▁ሁለተኛው",
        -9.460029974438587
      ],
      [
        "ደው",
        -9.460812804873775
      ],
      [
        "ጥር",
        -9.461739574446977
      ],
      [
        "▁በተግባር",
        -9.4620098613878
      ],
      [
        "▁ሰራተኞች",
        -9.46214067229362
      ],
      [
        "▁ያደረጉት",
        -9.462553588722626
      ],
      [
        "ዎቹን",
        -9.463285611862206
      ],
      [
        "▁የማያ",
        -9.463831395406356
      ],
      [
        "▁ባህር",
        -9.464631689255071
      ],
      [
        "▁ወታደሮች",
        -9.464660480566694
      ],
      [
        "▁ቀጥሎ",
        -9.464678049495848
      ],
      [
        "▁ሲሆን፣",
        -9.464897242553514
      ],
      [
        "▁የፌዴራል",
        -9.46514140763806
      ],
      [
        "▁የእግዚአብሔር",
        -9.466232336140983
      ],
      [
        "ሳል",
        -9.466592562859685
      ],
      [
        "ፃ",
        -9.468263023703226
      ],
      [
        "▁ከነ",
        -9.468329920886683
      ],
      [
        "▁ያን",
        -9.468502156579198
      ],
      [
        "▁ጥቁር",
        -9.468518354713796
      ],
      [
        "▁አደባባይ",
        -9.468783593455408
      ],
      [
        "▁ከእነዚህ",
        -9.469784398001035
      ],
      [
        "▁አማርኛ",
        -9.470035192526906
      ],
      [
        "▁ስንት",
        -9.470116219971072
      ],
      [
        "▁ነዋሪ",
        -9.470241203173783
      ],
      [
        "ወጡ",
        -9.470255823867197
      ],
      [
        "▁ርቀት",
        -9.470931869883165
      ],
      [
        "▁ያሳ",
        -9.471449989749097
      ],
      [
        "▁አፈ",
        -9.47158470479586
      ],
      [
        "▁ወሬ",
        -9.47200882888163
      ],
      [
        "▁መኮንን",
        -9.473124260945962
      ],
      [
        "ታል።",
        -9.474141617367495
      ],
      [
        "▁ትዕዛዝ",
        -9.474851137573555
      ],
      [
        "▁ሲሆኑ",
        -9.47522317642113
      ],
      [
        "ለህ",
        -9.475345669801175
      ],
      [
        "▁አጥ",
        -9.477190486878465
      ],
      [
        "▁የኮሮና",
        -9.477623783934805
      ],
      [
        "▁ያልሆነ",
        -9.47918256026186
      ],
      [
        "_",
        -9.479532063106143
      ],
      [
        "▁የውሃ",
        -9.479718389879524
      ],
      [
        "ቦች",
        -9.480092636525404
      ],
      [
        "▁28",
        -9.480591754243363
      ],
      [
        "▁እለት",
        -9.481644624104735
      ],
      [
        "▁ግድ",
        -9.481771249174034
      ],
      [
        "▁ስልጠና",
        -9.483449605975112
      ],
      [
        "ስታ",
        -9.485148178259328
      ],
      [
        "▁የመከላከያ",
        -9.4854783425369
      ],
      [
        "▁መብቶች",
        -9.485521276680194
      ],
      [
        "2",
        -9.48641523465867
      ],
      [
        "▁መደበኛ",
        -9.486624567320437
      ],
      [
        "ማን",
        -9.487439381615866
      ],
      [
        "▁ስምንት",
        -9.4877679905769
      ],
      [
        "▁የሚሆኑ",
        -9.488083137255511
      ],
      [
        "▁መሣሪያ",
        -9.488744925654473
      ],
      [
        "▁ውል",
        -9.489025783917588
      ],
      [
        "ፈልግ",
        -9.48926246707479
      ],
      [
        "▁ሊቀመንበር",
        -9.489622305922367
      ],
      [
        "ፔ",
        -9.489875655538514
      ],
      [
        "▁26",
        -9.490175136691798
      ],
      [
        "▁ህክምና",
        -9.492114919934078
      ],
      [
        "▁ውጤታማ",
        -9.49230708128942
      ],
      [
        "▁አሰራር",
        -9.492873073514374
      ],
      [
        "ኙ",
        -9.49293719063719
      ],
      [
        "▁ሽልማት",
        -9.493073414547936
      ],
      [
        "ያዊ",
        -9.493091617670446
      ],
      [
        "▁ትልቁ",
        -9.493340992207578
      ],
      [
        "▁ምርምር",
        -9.493649748369876
      ],
      [
        "7",
        -9.493922495786656
      ],
      [
        "▁ሰነድ",
        -9.494183715552516
      ],
      [
        "▁ኋላ",
        -9.495201608229973
      ],
      [
        "▁እያንዳንዱ",
        -9.49652405937043
      ],
      [
        "▁ያው",
        -9.496752068844128
      ],
      [
        "▁አው",
        -9.496920109667382
      ],
      [
        "▁በክልሉ",
        -9.497108614135913
      ],
      [
        "e",
        -9.497341988807776
      ],
      [
        "ለቅ",
        -9.498018996504234
      ],
      [
        "▁ግድያ",
        -9.499117926056751
      ],
      [
        "▁ስደተኞች",
        -9.499286451991004
      ],
      [
        "▁የካቲት",
        -9.499699029968086
      ],
      [
        "▁ለማየት",
        -9.50192612172681
      ],
      [
        "▁ኢንዱስትሪ",
        -9.502367412867317
      ],
      [
        "ነሱ",
        -9.50337024231902
      ],
      [
        "▁የተፈጥሮ",
        -9.503923109799423
      ],
      [
        "▁ግፍ",
        -9.504560827215498
      ],
      [
        "▁ቀለም",
        -9.505648649790489
      ],
      [
        "▁አስተዋጽኦ",
        -9.505895101889394
      ],
      [
        "▁ግምት",
        -9.50714232214052
      ],
      [
        "ጻ",
        -9.507312302417388
      ],
      [
        "▁ተጫዋቾች",
        -9.507543918748985
      ],
      [
        "▁አስታወቀ",
        -9.508485075899836
      ],
      [
        "▁2011",
        -9.50898714877265
      ],
      [
        "▁ቅዳሜ",
        -9.51016943536678
      ],
      [
        "▁በአካባቢው",
        -9.511125998889558
      ],
      [
        "▁ሥጋ",
        -9.51235373153902
      ],
      [
        "▁ዋነኛ",
        -9.51334155716764
      ],
      [
        "▁ወንድም",
        -9.514429170947723
      ],
      [
        "▁ሀይል",
        -9.514640689455778
      ],
      [
        "▁ስርአት",
        -9.514723786799578
      ],
      [
        "▁ጊዜያት",
        -9.515021811008726
      ],
      [
        "▁2020",
        -9.515052723475373
      ],
      [
        "▁የተባበሩት",
        -9.515177453064476
      ],
      [
        "8",
        -9.515427715716946
      ],
      [
        "▁ቀይ",
        -9.515894687301252
      ],
      [
        "ገቡ",
        -9.51630503866794
      ],
      [
        "ሯ",
        -9.516833232968237
      ],
      [
        "▁መኖሪያ",
        -9.517420255458378
      ],
      [
        "ራት",
        -9.518605589291644
      ],
      [
        "ቆም",
        -9.518975019094908
      ],
      [
        "▁ርዕስ",
        -9.519441752755046
      ],
      [
        "ባቸውን",
        -9.521375606897273
      ],
      [
        "▁መልእክት",
        -9.521505628716769
      ],
      [
        "ዐ",
        -9.521672063821898
      ],
      [
        "▁ቀበሌ",
        -9.523056386004232
      ],
      [
        "▁ለመፍታት",
        -9.52323733340286
      ],
      [
        "▁አስገራሚ",
        -9.523946631990068
      ],
      [
        "▁እንዲያውም",
        -9.525075480635158
      ],
      [
        "ገረ",
        -9.52623849422828
      ],
      [
        "ገኙ",
        -9.526509656014742
      ],
      [
        "▁ተስፋዬ",
        -9.52699723984462
      ],
      [
        "▁ንቅናቄ",
        -9.5270543328708
      ],
      [
        "▁አንደኛ",
        -9.527250919895916
      ],
      [
        "▁ያንን",
        -9.528227285062275
      ],
      [
        "▁አይቀርም",
        -9.52897447726431
      ],
      [
        "ደርግ",
        -9.530329609604363
      ],
      [
        "ጣል",
        -9.530393313899085
      ],
      [
        "▁መንግሥቱ",
        -9.531085035815314
      ],
      [
        "▁የሚችለው",
        -9.5310880395327
      ],
      [
        "▁ገብቶ",
        -9.53263197058937
      ],
      [
        "▁መንግስቱ",
        -9.53295955244838
      ],
      [
        "▁ብዙዎች",
        -9.534833272337549
      ],
      [
        "▁ጋዜጠኞች",
        -9.536570670246768
      ],
      [
        "▁መቼም",
        -9.537149167182204
      ],
      [
        "▁ጉዳዩን",
        -9.538358696044344
      ],
      [
        "▁ይመስለኛል",
        -9.538667189245064
      ],
      [
        "▁50",
        -9.538904567727862
      ],
      [
        "▁ሙያ",
        -9.53928756346242
      ],
      [
        "▁ገብረ",
        -9.540072409796222
      ],
      [
        "ሳቸው",
        -9.540666383692091
      ],
      [
        "▁የጀርመን",
        -9.54153094093424
      ],
      [
        "▁በቃ",
        -9.542059321036229
      ],
      [
        "▁ወቅታዊ",
        -9.542115293215526
      ],
      [
        "▁ብን",
        -9.542846299822571
      ],
      [
        "▁ማስታወቂያ",
        -9.544293174783988
      ],
      [
        "ግራ",
        -9.54439176297459
      ],
      [
        "▁ህወሓት",
        -9.545371842798827
      ],
      [
        "▁የፀጥታ",
        -9.546644782802312
      ],
      [
        "ሉት",
        -9.54706473777649
      ],
      [
        "▁ሚሊየን",
        -9.547162259591998
      ],
      [
        "ታይ",
        -9.547230312148145
      ],
      [
        "▁እያደረገ",
        -9.54832768644661
      ],
      [
        "▁መሠረታዊ",
        -9.54860081230533
      ],
      [
        "▁ልብስ",
        -9.549249683432338
      ],
      [
        "▁ቻይና",
        -9.54969512425316
      ],
      [
        "▁አካሄድ",
        -9.54997540095768
      ],
      [
        "▁ይችላል።",
        -9.550176263351869
      ],
      [
        "▁ሐምሌ",
        -9.550315518995957
      ],
      [
        "▁ኦርቶዶክስ",
        -9.550841853157
      ],
      [
        "▁መጠበቅ",
        -9.551043730981457
      ],
      [
        "▁ለመጀመሪያ",
        -9.553161508224536
      ],
      [
        "▁የመሬት",
        -9.553882484013844
      ],
      [
        "▁አላህ",
        -9.55402913342149
      ],
      [
        "▁ሁለቱም",
        -9.554287820183394
      ],
      [
        "▁መጋቢት",
        -9.554968871673337
      ],
      [
        "▁ብድር",
        -9.555086338706532
      ],
      [
        "▁እንደሚሉት",
        -9.555185166759667
      ],
      [
        "▁ለማሻሻል",
        -9.555406081395756
      ],
      [
        "▁ስነ",
        -9.555630270029246
      ],
      [
        "▁አንስቶ",
        -9.55674350769472
      ],
      [
        "ጠቀም",
        -9.55707256575162
      ],
      [
        "▁ብዙም",
        -9.558650934991622
      ],
      [
        "▁አውሮፕላን",
        -9.55881869482601
      ],
      [
        "ጠን",
        -9.559429006896904
      ],
      [
        "▁መሰል",
        -9.559534833600637
      ],
      [
        "▁አቅርቦት",
        -9.55986728033482
      ],
      [
        "ሰጠው",
        -9.56028006912556
      ],
      [
        "ልክ",
        -9.560417532477148
      ],
      [
        "ስብ",
        -9.56047840109346
      ],
      [
        "▁ሰአት",
        -9.560685520365467
      ],
      [
        "▁ቅድመ",
        -9.561746925342844
      ],
      [
        "▁ነጻነት",
        -9.561863086399509
      ],
      [
        "▁በደል",
        -9.56245466835089
      ],
      [
        "▁ሕዝቡ",
        -9.56409014432398
      ],
      [
        "▁የኢህአዴግ",
        -9.564339533657224
      ],
      [
        "▁የመጽሐፍ",
        -9.565385732635228
      ],
      [
        "▁መምህር",
        -9.56681525717102
      ],
      [
        "▁የአለም",
        -9.567170572580892
      ],
      [
        "▁ክለቦች",
        -9.56760061150675
      ],
      [
        "▁መስሪያ",
        -9.56844353873259
      ],
      [
        "▁አስራ",
        -9.569222913447206
      ],
      [
        "▁በመንግስት",
        -9.56936071807128
      ],
      [
        "▁ሙዚቃ",
        -9.569418831534987
      ],
      [
        "9",
        -9.570048190947448
      ],
      [
        "▁ወንዝ",
        -9.570328770454768
      ],
      [
        "▁እንዳልሆነ",
        -9.57076028129826
      ],
      [
        "▁ተጠያቂ",
        -9.571231723933886
      ],
      [
        "▁ተናግረዋል።",
        -9.571688666252156
      ],
      [
        "▁መልሶ",
        -9.5721416215565
      ],
      [
        "▁ይቀ",
        -9.572215402200904
      ],
      [
        "▁የቀድሞው",
        -9.57249621949306
      ],
      [
        "ሻል",
        -9.573249482956555
      ],
      [
        "ወደ",
        -9.573526197643735
      ],
      [
        "▁ነዉ።",
        -9.57435576595915
      ],
      [
        "▁የፌደራል",
        -9.574962024831034
      ],
      [
        "▁ነበረ",
        -9.575791441088027
      ],
      [
        "▁ዜናዊ",
        -9.576115432801386
      ],
      [
        "▁ጉባዔ",
        -9.576814868918166
      ],
      [
        "በቃ",
        -9.57703049948706
      ],
      [
        "▁ፊልም",
        -9.577083783504866
      ],
      [
        "▁ያደርጋል",
        -9.577333188192236
      ],
      [
        "ራል",
        -9.580394650045418
      ],
      [
        "ማቸው",
        -9.580586046759567
      ],
      [
        "▁ማብራሪያ",
        -9.580802502610975
      ],
      [
        "▁ተባለ",
        -9.580964998139216
      ],
      [
        "▁ክለብ",
        -9.581913351365507
      ],
      [
        "▁ለምንድን",
        -9.58201203297648
      ],
      [
        "ፈው",
        -9.582869141047532
      ],
      [
        "ዲያ",
        -9.58416936032686
      ],
      [
        "▁ጥንቃቄ",
        -9.584248523381216
      ],
      [
        "▁የሰብዓዊ",
        -9.58555288035947
      ],
      [
        "+",
        -9.586939059803475
      ],
      [
        "▁ከአዲስ",
        -9.587912418417302
      ],
      [
        "ወድ",
        -9.589892013882675
      ],
      [
        "ታት",
        -9.590178506579695
      ],
      [
        "▁አይደሉም",
        -9.590853310118874
      ],
      [
        "▁ህጋዊ",
        -9.590872725743589
      ],
      [
        "▁ከውጭ",
        -9.591335906921662
      ],
      [
        "ኒያ",
        -9.591355174182503
      ],
      [
        "▁ከሁሉም",
        -9.592018301802854
      ],
      [
        "▁ሁላችንም",
        -9.592948985715484
      ],
      [
        "▁ጽ/ቤት",
        -9.592950485162907
      ],
      [
        "▁ሆኑ",
        -9.594271997878904
      ],
      [
        "▁ምሽት",
        -9.594931157158344
      ],
      [
        "▁ልና",
        -9.596085310854493
      ],
      [
        "▁ስለነበር",
        -9.596256663704942
      ],
      [
        "▁እንዳሉት",
        -9.596477747989551
      ],
      [
        "▁ህዝባዊ",
        -9.59713084312509
      ],
      [
        "▁ድርድር",
        -9.597468064403202
      ],
      [
        "▁ታማኝ",
        -9.597572559830663
      ],
      [
        "▁ባሉ",
        -9.597836366776905
      ],
      [
        "ንድ",
        -9.598429357150705
      ],
      [
        "▁ደሳለኝ",
        -9.598963207474164
      ],
      [
        "▁ላለፉት",
        -9.599526202839598
      ],
      [
        "▁አሠራር",
        -9.600609075146544
      ],
      [
        "▁ምግባር",
        -9.60073823055166
      ],
      [
        "▁በሚገኘው",
        -9.60074153710758
      ],
      [
        "▁ስልክ",
        -9.601043670537486
      ],
      [
        "▁ሳይንስ",
        -9.60120819889605
      ],
      [
        "▁ቋሚ",
        -9.60163702258839
      ],
      [
        "▁ታዋቂ",
        -9.601892309311058
      ],
      [
        "▁አግባብ",
        -9.603846120455044
      ],
      [
        "▁አዎ",
        -9.605231734765546
      ],
      [
        "▁በስፋት",
        -9.605622801818908
      ],
      [
        "▁የከተማ",
        -9.605797509878595
      ],
      [
        "▁መፍጠር",
        -9.60599058608894
      ],
      [
        "ነገር",
        -9.60685071295537
      ],
      [
        "▁እስቲ",
        -9.60689585866178
      ],
      [
        "ፈታ",
        -9.608452601250942
      ],
      [
        "ወር",
        -9.609263275331816
      ],
      [
        "▁ፈጣን",
        -9.609545299102477
      ],
      [
        "▁ገልጸዋል፡፡",
        -9.609969070038082
      ],
      [
        "▁አሰልጣኝ",
        -9.610424508782348
      ],
      [
        "ማት",
        -9.61049683045234
      ],
      [
        "▁ዝግጁ",
        -9.610638102452276
      ],
      [
        "ዬን",
        -9.611273717145735
      ],
      [
        "▁የሚያደርግ",
        -9.612026987579169
      ],
      [
        "▁ሲኖዶስ",
        -9.612172921555937
      ],
      [
        "▁ላለ",
        -9.612631404525844
      ],
      [
        "▁በነበረው",
        -9.61304319107771
      ],
      [
        "▁አለቃ",
        -9.613046305103484
      ],
      [
        "▁ትብብር",
        -9.613194993296185
      ],
      [
        "▁ቁልፍ",
        -9.616011116228174
      ],
      [
        "▁አደገኛ",
        -9.616820798992878
      ],
      [
        "▁የተደረገ",
        -9.616858877339912
      ],
      [
        "▁ይገኛሉ",
        -9.617396691772392
      ],
      [
        "▁የሃይማኖት",
        -9.61873092104306
      ],
      [
        "▁ቢኖር",
        -9.62023549797662
      ],
      [
        "▁ይሆናል።",
        -9.620877521801502
      ],
      [
        "▁ብርሃኑ",
        -9.621028082665914
      ],
      [
        "ናገር",
        -9.621637094731744
      ],
      [
        "ዘር",
        -9.62174547069102
      ],
      [
        "▁መጠየቅ",
        -9.622417912820838
      ],
      [
        "▁በሰጡት",
        -9.622780074033956
      ],
      [
        "▁በአገር",
        -9.622948927838337
      ],
      [
        "▁ወርቅ",
        -9.623259621241605
      ],
      [
        "▁ሳለ",
        -9.624165798717742
      ],
      [
        "▁የእኔ",
        -9.624554423315754
      ],
      [
        "▁•",
        -9.6247013212484
      ],
      [
        "▁ካላ",
        -9.62580500827996
      ],
      [
        "ታል፡፡",
        -9.626035541561707
      ],
      [
        "▁ኪዳን",
        -9.626308520003477
      ],
      [
        "▁በተለያየ",
        -9.626456605819524
      ],
      [
        "▁እንደሚሆን",
        -9.62661102739766
      ],
      [
        "▁የሰጡት",
        -9.626664610327284
      ],
      [
        "መድ",
        -9.62731461870436
      ],
      [
        "▁መላ",
        -9.627597692828044
      ],
      [
        "▁አስቀድሞ",
        -9.6284935791
      ],
      [
        "ጠላ",
        -9.629165809555056
      ],
      [
        "▁ጉድ",
        -9.630413796953658
      ],
      [
        "▁አይደል",
        -9.630617683869472
      ],
      [
        "▁ህመም",
        -9.630702676514368
      ],
      [
        "ነትን",
        -9.630833158292472
      ],
      [
        "3",
        -9.631600324731895
      ],
      [
        "▁አጭር",
        -9.63167732916259
      ],
      [
        "▁ደንብ",
        -9.631951239107906
      ],
      [
        "▁አለብን",
        -9.632341207209524
      ],
      [
        "▁ኡ",
        -9.632472097594226
      ],
      [
        "▁እንችላለን",
        -9.632902560504846
      ],
      [
        "!”",
        -9.633419088928983
      ],
      [
        "▁ሃብት",
        -9.634061421731584
      ],
      [
        "▁ምስጋና",
        -9.635285824327502
      ],
      [
        "▁አንደኛው",
        -9.635635787927065
      ],
      [
        "▁ለመፍጠር",
        -9.635998660013094
      ],
      [
        "▁ድንጋይ",
        -9.63847237624396
      ],
      [
        "▁አበበ",
        -9.639333142547349
      ],
      [
        "▁የሚያሳይ",
        -9.639352444209807
      ],
      [
        "▁ይመ",
        -9.63971351801039
      ],
      [
        "▁ይታያል",
        -9.639853909533214
      ],
      [
        "▁ማር",
        -9.639913077130265
      ],
      [
        "▁አሰፋ",
        -9.64099126333976
      ],
      [
        "▁ተፈጥሮ",
        -9.64111048362756
      ],
      [
        "▁አባይ",
        -9.641215815346342
      ],
      [
        "▁መሰረታዊ",
        -9.641303394495214
      ],
      [
        "?”",
        -9.641501740334578
      ],
      [
        "▁የሰ",
        -9.642817029336188
      ],
      [
        "▁የእግር",
        -9.64368463426568
      ],
      [
        "▁ተወላጆች",
        -9.644142681844585
      ],
      [
        "▁ፍጹም",
        -9.644158506004484
      ],
      [
        "▁ድርጅቱ",
        -9.645431166602526
      ],
      [
        "▁2009",
        -9.64571996068339
      ],
      [
        "▁ዳንኤል",
        -9.64616723622924
      ],
      [
        "▁ቀጠሮ",
        -9.646724102323896
      ],
      [
        "▁በአብዛኛው",
        -9.64710535813044
      ],
      [
        "▁ሁልጊዜ",
        -9.64725792140202
      ],
      [
        "▁አንዳች",
        -9.64759733776819
      ],
      [
        "▁ተፅዕኖ",
        -9.648017032476933
      ],
      [
        "▁ተከታታይ",
        -9.64890161213783
      ],
      [
        "▁የተባሉ",
        -9.64934297128555
      ],
      [
        "▁በቤተ",
        -9.649441239567311
      ],
      [
        "▁ሌሎችም",
        -9.650049290573897
      ],
      [
        "ዘጋ",
        -9.650342412891169
      ],
      [
        "▁በቅርብ",
        -9.651793305521483
      ],
      [
        "▁ክቡር",
        -9.651883859433438
      ],
      [
        "▁ተግባራት",
        -9.652275021200218
      ],
      [
        "▁በየጊዜው",
        -9.65269939084464
      ],
      [
        "▁ይቅር",
        -9.653589645187076
      ],
      [
        "ባችሁ",
        -9.653815645340606
      ],
      [
        "▁የራሱን",
        -9.654222716997172
      ],
      [
        "▁ድንቅ",
        -9.655888949665574
      ],
      [
        "▁ይኸው",
        -9.65606275510666
      ],
      [
        "▁ዘንድሮ",
        -9.656145524975464
      ],
      [
        "▁መረዳት",
        -9.656192196739417
      ],
      [
        "▁ተያይዞ",
        -9.657089618028651
      ],
      [
        "▁ዝቅተኛ",
        -9.657162418325036
      ],
      [
        "ቷን",
        -9.657227346295084
      ],
      [
        "▁አምባሳደር",
        -9.657524831984055
      ],
      [
        "▁በኃላ",
        -9.657965333028578
      ],
      [
        "▁እንዳያ",
        -9.659362251913238
      ],
      [
        "ጠና",
        -9.65943639250202
      ],
      [
        "▁ሠራዊት",
        -9.66080525452276
      ],
      [
        "▁ጎል",
        -9.660892503664916
      ],
      [
        "▁ፖለቲከኞች",
        -9.661376870746375
      ],
      [
        "▁አስኪያጅ",
        -9.661924148083603
      ],
      [
        "▁የጊዜ",
        -9.661973847331051
      ],
      [
        "▁በምድር",
        -9.662143272465029
      ],
      [
        "ፈረ",
        -9.66259209983519
      ],
      [
        "▁ቅሬታ",
        -9.66350109080224
      ],
      [
        "▁አቀፉ",
        -9.664341562925276
      ],
      [
        "ሞች",
        -9.664444422815151
      ],
      [
        "▁ለሌሎች",
        -9.6647139889548
      ],
      [
        "ዋቸው",
        -9.665000061281754
      ],
      [
        "▁ያኔ",
        -9.665514844558064
      ],
      [
        "▁የሚገባ",
        -9.665995260207463
      ],
      [
        "▁አብረው",
        -9.666089631217067
      ],
      [
        "▁በእነዚህ",
        -9.667344823030987
      ],
      [
        "▁ሰር",
        -9.667818321417032
      ],
      [
        "▁አመ",
        -9.668058754926806
      ],
      [
        "▁የሚደረግ",
        -9.668202774080756
      ],
      [
        "▁አብዛኞቹ",
        -9.669399816477553
      ],
      [
        "መጡ",
        -9.669431086938843
      ],
      [
        "▁ጥላቻ",
        -9.66951390002222
      ],
      [
        "ክር",
        -9.669605318191824
      ],
      [
        "▁ስለተ",
        -9.669965715192772
      ],
      [
        "▁ቀስ",
        -9.670189181434631
      ],
      [
        "▁ስጦታ",
        -9.67071188891611
      ],
      [
        "▁ወ/ሮ",
        -9.671020590690636
      ],
      [
        "ደራ",
        -9.67103139196531
      ],
      [
        "▁በመሆናቸው",
        -9.67110536704487
      ],
      [
        "ሰሙ",
        -9.671912967180113
      ],
      [
        "▁የለውጥ",
        -9.67236697609285
      ],
      [
        "▁ቤተሰቦች",
        -9.67283864266554
      ],
      [
        "▁ደጋፊዎች",
        -9.673600004429108
      ],
      [
        "▁ሺሕ",
        -9.674415530122516
      ],
      [
        "▁ማሳ",
        -9.674892096281395
      ],
      [
        "▁መሄድ",
        -9.676825793553762
      ],
      [
        "▁ተብሏል",
        -9.6775395668174
      ],
      [
        "▁ይሰ",
        -9.678235746889948
      ],
      [
        "ጠይቅ",
        -9.6783556651679
      ],
      [
        "ተኞች",
        -9.679776410531325
      ],
      [
        "▁የሁለቱ",
        -9.680294478979487
      ],
      [
        "▁የህክምና",
        -9.680497714380229
      ],
      [
        "▁በሰሜን",
        -9.680810063720765
      ],
      [
        "▁29",
        -9.681048866053992
      ],
      [
        "▁እንዲሆኑ",
        -9.681392031884885
      ],
      [
        "▁ለህዝብ",
        -9.681530642435591
      ],
      [
        "መለ",
        -9.68180284723359
      ],
      [
        "▁እየተደረገ",
        -9.682302297483336
      ],
      [
        "▁ችሎት",
        -9.683625160259057
      ],
      [
        "▁ይዘት",
        -9.68386944813669
      ],
      [
        "▁በርስ",
        -9.684147672589946
      ],
      [
        "▁ለሁሉም",
        -9.684693771392034
      ],
      [
        "ታው",
        -9.685857145045992
      ],
      [
        "▁ምዕራፍ",
        -9.68603940789878
      ],
      [
        "▁መሥራት",
        -9.688449748094383
      ],
      [
        "ንዴ",
        -9.688688903151066
      ],
      [
        "▁አጋማሽ",
        -9.689004538822166
      ],
      [
        "▁ማኅበር",
        -9.689539782452922
      ],
      [
        "▁ሙስና",
        -9.689653501422235
      ],
      [
        "▁ለመሆኑ",
        -9.69079851796898
      ],
      [
        "▁የታ",
        -9.691632861101352
      ],
      [
        "ቀረ",
        -9.692563463160456
      ],
      [
        "▁ደጋፊ",
        -9.693102862855833
      ],
      [
        "▁ወረርሽኝ",
        -9.693111947655852
      ],
      [
        "▁ወጥቶ",
        -9.694407205847122
      ],
      [
        "▁ሁሌም",
        -9.694815216405734
      ],
      [
        "ዋል።",
        -9.694846905828609
      ],
      [
        "▁መግባት",
        -9.695000995129872
      ],
      [
        "▁ፍጥነት",
        -9.695248209363124
      ],
      [
        "▁ውነ",
        -9.695306863318216
      ],
      [
        "▁ብሄር",
        -9.695438672568212
      ],
      [
        "▁ሳይቀር",
        -9.69563470230987
      ],
      [
        "ቻቸው",
        -9.696235608309289
      ],
      [
        "▁ኢኮኖሚያዊ",
        -9.696323800732223
      ],
      [
        "▁ዳግም",
        -9.698104007216353
      ],
      [
        "▁አዳራሽ",
        -9.698841552485668
      ],
      [
        "▁40",
        -9.699841371639176
      ],
      [
        "▁መውሰድ",
        -9.700198279410431
      ],
      [
        "▁አደረገ",
        -9.700433379019984
      ],
      [
        "ቸዋል",
        -9.7014246735616
      ],
      [
        "ዎት",
        -9.702592532668186
      ],
      [
        "▁ተደ",
        -9.703403087842172
      ],
      [
        "▁በሀገሪቱ",
        -9.703495428003391
      ],
      [
        "▁2008",
        -9.703971894503455
      ],
      [
        "መስ",
        -9.705207505038066
      ],
      [
        "▁ይመልከቱ",
        -9.705409261096236
      ],
      [
        "▁ቴዎድሮስ",
        -9.70562622296181
      ],
      [
        "▁ከንቲባ",
        -9.706356080586476
      ],
      [
        "▁እየሆነ",
        -9.706611927462706
      ],
      [
        "▁የተናገሩት",
        -9.706682100259693
      ],
      [
        "ርበነ",
        -9.706840617657615
      ],
      [
        "ወቅ",
        -9.707397877570523
      ],
      [
        "▁ስርጭት",
        -9.707861730206048
      ],
      [
        "▁በመላው",
        -9.708573622518578
      ],
      [
        "▁ከተለያዩ",
        -9.708752620077544
      ],
      [
        "▁ነፍስ",
        -9.70913444848119
      ],
      [
        "▁ጠቅላላ",
        -9.709508536723105
      ],
      [
        "▁ባለፈ",
        -9.709515720735588
      ],
      [
        "▁አንድም",
        -9.709595945168417
      ],
      [
        "▁የኃይል",
        -9.710840106475606
      ],
      [
        "▁በመንግሥት",
        -9.71112173793339
      ],
      [
        "▁እነሆ",
        -9.71122008015852
      ],
      [
        "▁ማታ",
        -9.711246944000656
      ],
      [
        "▁ኢትዮጵያዊያን",
        -9.712341353009457
      ],
      [
        "▁ጨዋታው",
        -9.713202338431286
      ],
      [
        "▁እሱን",
        -9.713525028133215
      ],
      [
        "▁ዩኒቨርስቲ",
        -9.713751129622114
      ],
      [
        "▁ህወሃት",
        -9.715082858404305
      ],
      [
        "▁ነገሩ",
        -9.715475611857268
      ],
      [
        "▁በሥራ",
        -9.715618135915385
      ],
      [
        "▁ማረፊያ",
        -9.716288254284946
      ],
      [
        "▁እሁድ",
        -9.716386004091836
      ],
      [
        "▁ማጥፋት",
        -9.717452948094278
      ],
      [
        "▁ረጅም",
        -9.717614950140716
      ],
      [
        "▁ኃይለ",
        -9.71781486507918
      ],
      [
        "▁ከእ",
        -9.718175649844325
      ],
      [
        "▁ስል",
        -9.718412650658207
      ],
      [
        "▁በቀር",
        -9.719959858723248
      ],
      [
        "▁እርግጥ",
        -9.7201142199939
      ],
      [
        "▁የሀገሪቱ",
        -9.722027341398116
      ],
      [
        "▁ሚስት",
        -9.72411262781814
      ],
      [
        "ደም",
        -9.724560707259052
      ],
      [
        "▁ሰዉ",
        -9.724912127820591
      ],
      [
        "▁ግልፅ",
        -9.725485046743003
      ],
      [
        "▁ከዛ",
        -9.7256994280816
      ],
      [
        "ያለሁ",
        -9.726501183950704
      ],
      [
        "▁ችግሩን",
        -9.727515380092644
      ],
      [
        "▁በግል",
        -9.727756902336342
      ],
      [
        "▁ተጽዕኖ",
        -9.728273452557596
      ],
      [
        "ለሁ",
        -9.72839957283446
      ],
      [
        "ይተ",
        -9.728911946924436
      ],
      [
        "▁ባለበት",
        -9.730425009770354
      ],
      [
        "ርስ",
        -9.730946078148882
      ],
      [
        "ኗ",
        -9.7309881906195
      ],
      [
        "ነትና",
        -9.731593562617912
      ],
      [
        "▁ከበደ",
        -9.73163395146117
      ],
      [
        "▁ታደሰ",
        -9.73222238796184
      ],
      [
        "▁አስር",
        -9.73234762523596
      ],
      [
        "▁(አ",
        -9.732364947887763
      ],
      [
        "ነታችን",
        -9.732914672136395
      ],
      [
        "▁ይናገራሉ",
        -9.733845727630932
      ],
      [
        "ለማ",
        -9.734732941023102
      ],
      [
        "▁በእጅጉ",
        -9.736406546492956
      ],
      [
        "▁የሚገኙት",
        -9.736987046558472
      ],
      [
        "ሩን",
        -9.737174940113611
      ],
      [
        "ኝነት",
        -9.737616174492247
      ],
      [
        "▁ረቂቅ",
        -9.73853512067478
      ],
      [
        "▁ኦሮሚያ",
        -9.738675547486208
      ],
      [
        "▁ካልተ",
        -9.739385199089943
      ],
      [
        "▁ሳቢያ",
        -9.740745941123546
      ],
      [
        "▁ፈጽሞ",
        -9.741124111391995
      ],
      [
        "ብል",
        -9.741377971570614
      ],
      [
        "ደርስ",
        -9.742201350974224
      ],
      [
        "▁የሙዚቃ",
        -9.742455104398106
      ],
      [
        "▁መስፍን",
        -9.74300531032415
      ],
      [
        "▁ጣልቃ",
        -9.743919914449505
      ],
      [
        "ቧ",
        -9.7456580481851
      ],
      [
        "'",
        -9.745926850122604
      ],
      [
        "▁በሚለው",
        -9.747402408291878
      ],
      [
        "▁መስቀል",
        -9.747868202615516
      ],
      [
        "▁ኢን",
        -9.748065025079658
      ],
      [
        "እንደ",
        -9.748138002143753
      ],
      [
        "▁በማይ",
        -9.748379721937884
      ],
      [
        "▁መከላከል",
        -9.748823222531634
      ],
      [
        "ችበት",
        -9.749259863935334
      ],
      [
        "▁ተመ",
        -9.749767156540011
      ],
      [
        "▁እንደምት",
        -9.750060856700436
      ],
      [
        "▁ጳጳሳት",
        -9.75052779424321
      ],
      [
        "ሰጣቸው",
        -9.75054826208756
      ],
      [
        "▁የፍቅር",
        -9.751224274726203
      ],
      [
        "▁የኢ",
        -9.752022154876345
      ],
      [
        "▁በማስ",
        -9.75245448589757
      ],
      [
        "▁ለመስራት",
        -9.753211134117128
      ],
      [
        "▁የሚሰጠው",
        -9.753293739602864
      ],
      [
        "ጎዳ",
        -9.754647767844697
      ],
      [
        "▁ፋብሪካ",
        -9.754736426880656
      ],
      [
        "▁ክርክር",
        -9.756094001677091
      ],
      [
        "▁ምቹ",
        -9.756701816825048
      ],
      [
        "▁አደሮች",
        -9.757000434613238
      ],
      [
        "▁አይሆንም",
        -9.757044024218828
      ],
      [
        "▁አለን",
        -9.75778258507388
      ],
      [
        "▁እኔን",
        -9.758308134234758
      ],
      [
        "ስር",
        -9.758425886197289
      ],
      [
        "▁የሚሰጥ",
        -9.75870936397658
      ],
      [
        "▁በቀን",
        -9.759011104509677
      ],
      [
        "▁ግብፅ",
        -9.759235999901552
      ],
      [
        "▁እንግዳ",
        -9.759795911951803
      ],
      [
        "ሳካ",
        -9.759874323642752
      ],
      [
        "▁በመጨረሻም",
        -9.760199966220142
      ],
      [
        "▁ግብረ",
        -9.760427358997283
      ],
      [
        "▁የተወሰነ",
        -9.760870754258084
      ],
      [
        "▁ቀና",
        -9.761110893895223
      ],
      [
        "▁“ከ",
        -9.761196901527477
      ],
      [
        "▁ሚንስትር",
        -9.761602683961582
      ],
      [
        "▁የኤሌክትሪክ",
        -9.762107675793516
      ],
      [
        "▁ባለስልጣን",
        -9.763781755647347
      ],
      [
        "▁የግድ",
        -9.76387605938722
      ],
      [
        "▁አንዴ",
        -9.764112858368856
      ],
      [
        "▁ባለሥልጣናት",
        -9.764515836366916
      ],
      [
        "ዎቻቸው",
        -9.764875517639434
      ],
      [
        "ጠር",
        -9.76555094157954
      ],
      [
        "▁100",
        -9.765583042960818
      ],
      [
        "ዮች",
        -9.765800370919967
      ],
      [
        "▁አይቻልም",
        -9.766368572405058
      ],
      [
        "▁ጉብኝት",
        -9.766706725146127
      ],
      [
        "▁ፒ",
        -9.767085297271842
      ],
      [
        "▁እኛን",
        -9.767354200256175
      ],
      [
        "ካል",
        -9.767602874685853
      ],
      [
        "▁ይሰጣል",
        -9.76790945439176
      ],
      [
        "▁ሂ",
        -9.768294258539852
      ],
      [
        "▁የለ",
        -9.768517820955198
      ],
      [
        "▁አገሪቱ",
        -9.769222128830464
      ],
      [
        "ሯቸው",
        -9.770521125393758
      ],
      [
        "▁ሃያ",
        -9.770841350841623
      ],
      [
        "s",
        -9.77212233121174
      ],
      [
        "ስተ",
        -9.772205449322836
      ],
      [
        "▁የሚገባው",
        -9.772402384282731
      ],
      [
        "▁መመለስ",
        -9.772619553570236
      ],
      [
        "▁ኃላፊዎች",
        -9.773242042069391
      ],
      [
        "▁ድር",
        -9.773605681716118
      ],
      [
        "ሩት",
        -9.773681657209533
      ],
      [
        "▁ይገ",
        -9.7739395123187
      ],
      [
        "▁ጥልቅ",
        -9.774394443227376
      ],
      [
        "▁ትራምፕ",
        -9.774811221648196
      ],
      [
        "▁ተገ",
        -9.774881314642432
      ],
      [
        "ፁ",
        -9.775627573148064
      ],
      [
        "▁በብዛት",
        -9.775818311553444
      ],
      [
        "▁ሕጋዊ",
        -9.775974600003488
      ],
      [
        "▁በእግዚአብሔር",
        -9.77642155066566
      ],
      [
        "▁የወጣ",
        -9.776723642428788
      ],
      [
        "▁ዝቅ",
        -9.776733180813846
      ],
      [
        "▁ወይዘሮ",
        -9.77706517977092
      ],
      [
        "▁ይችላል፡፡",
        -9.777090047511948
      ],
      [
        "▁የኛ",
        -9.777460219097184
      ],
      [
        "▁ተራራ",
        -9.77761380439948
      ],
      [
        "▁ግምገማ",
        -9.778627194729909
      ],
      [
        "▁በሕግ",
        -9.778807665167076
      ],
      [
        "▁“አ",
        -9.7793318013373
      ],
      [
        "ጡት",
        -9.779708795256868
      ],
      [
        "ጥሩ",
        -9.779849195672654
      ],
      [
        "▁ወጣ",
        -9.780165077082314
      ],
      [
        "▁አካ",
        -9.780184370039208
      ],
      [
        "▁ዘላቂ",
        -9.780498173052296
      ],
      [
        "▁በሚገኙ",
        -9.78057419122329
      ],
      [
        "▁የአፍሪቃ",
        -9.780746329697145
      ],
      [
        "▁ቁጭ",
        -9.780868680955836
      ],
      [
        "▁መግቢያ",
        -9.78261241787209
      ],
      [
        "ስቶ",
        -9.782641088201968
      ],
      [
        "ቤት",
        -9.782702492592811
      ],
      [
        "▁ዘይት",
        -9.784099230273412
      ],
      [
        "▁ምርቶች",
        -9.784154133533594
      ],
      [
        "ደረግ",
        -9.784730967498012
      ],
      [
        "ዋለሁ",
        -9.785090690404516
      ],
      [
        "ለኝ",
        -9.785328331741583
      ],
      [
        "▁መምህራን",
        -9.7853648243182
      ],
      [
        "▁የለም።",
        -9.785960250405752
      ],
      [
        "▁ነጥቦች",
        -9.786091699018744
      ],
      [
        "▁ኦነግ",
        -9.78626612000664
      ],
      [
        "▁በማንኛውም",
        -9.786313579310066
      ],
      [
        "ነካ",
        -9.786398165132598
      ],
      [
        "ልፍ",
        -9.786827034809685
      ],
      [
        "▁አእምሮ",
        -9.78705809298407
      ],
      [
        "▁ብሎም",
        -9.787163298425977
      ],
      [
        "ሊያ",
        -9.787518896262196
      ],
      [
        "▁መስክ",
        -9.788004225916977
      ],
      [
        "▁የደም",
        -9.788712884774403
      ],
      [
        "መሰ",
        -9.789168415773307
      ],
      [
        "▁መጻሕፍት",
        -9.78965353440502
      ],
      [
        "▁እየጨመረ",
        -9.7900010782923
      ],
      [
        "▁አባባል",
        -9.79048533930328
      ],
      [
        "▁የስፖርት",
        -9.790838997923997
      ],
      [
        "ኽ",
        -9.790840448517796
      ],
      [
        "▁የሴቶች",
        -9.79095554865532
      ],
      [
        "▁እንደሚችሉ",
        -9.790978704753991
      ],
      [
        "▁ተከ",
        -9.791551650332297
      ],
      [
        "ሥራ",
        -9.791941988317427
      ],
      [
        "▁የያዘ",
        -9.79216278005062
      ],
      [
        "▁መሐመድ",
        -9.792406484569035
      ],
      [
        "▁ፍለጋ",
        -9.792760974657307
      ],
      [
        "▁ደርሶ",
        -9.79293512984981
      ],
      [
        "▁ባላ",
        -9.79318648729732
      ],
      [
        "▁እውቅና",
        -9.793815908036008
      ],
      [
        "ቀን",
        -9.79495029685906
      ],
      [
        "▁አድርጓል",
        -9.795162180815204
      ],
      [
        "▁በል",
        -9.795200541503377
      ],
      [
        "▁ታላቁ",
        -9.795244048854792
      ],
      [
        "ኘ",
        -9.79546343611231
      ],
      [
        "ጠረ",
        -9.796820075917408
      ],
      [
        "ሆኑ",
        -9.797442686198368
      ],
      [
        "ይህ",
        -9.798331992387316
      ],
      [
        "ታች",
        -9.798340355061736
      ],
      [
        "ባሉ",
        -9.798538082768008
      ],
      [
        "ኢትዮጵያ",
        -9.798880625549687
      ],
      [
        "▁የባህር",
        -9.79924213295089
      ],
      [
        "ሓ",
        -9.799816973997736
      ],
      [
        "ፍራ",
        -9.799934572446382
      ],
      [
        "ሰሩ",
        -9.800934606188507
      ],
      [
        "▁በትምህርት",
        -9.801070973621032
      ],
      [
        "▁ከጊዜ",
        -9.802388618951149
      ],
      [
        "▁ገደማ",
        -9.803001176211438
      ],
      [
        "▁ለሁለት",
        -9.804449665982498
      ],
      [
        "▁ኅብረት",
        -9.80450562636276
      ],
      [
        "▁እዚያ",
        -9.804765136865347
      ],
      [
        "▁የተሰጠ",
        -9.80493222688673
      ],
      [
        "30",
        -9.80616711718086
      ],
      [
        "ረፍ",
        -9.80646426444056
      ],
      [
        "▁ሊያስ",
        -9.806551214238512
      ],
      [
        "▁ይባላል",
        -9.806564020810042
      ],
      [
        "ስራ",
        -9.806914674548768
      ],
      [
        "▁ፈር",
        -9.80705997701345
      ],
      [
        "▁የራሱ",
        -9.807565642436838
      ],
      [
        "▁ሰማይ",
        -9.8087262660174
      ],
      [
        "▁የህወሓት",
        -9.80980878873189
      ],
      [
        "▁በሀገር",
        -9.810408565600104
      ],
      [
        "▁ለማረጋገጥ",
        -9.811051718436277
      ],
      [
        "▁የጠቅላይ",
        -9.81111850002975
      ],
      [
        "▁ሀገሮች",
        -9.811173591795598
      ],
      [
        "ኡ",
        -9.811456073341576
      ],
      [
        "▁ታህሳስ",
        -9.812707892628888
      ],
      [
        "ቀበል",
        -9.81289642995446
      ],
      [
        "ተናል",
        -9.812896873550152
      ],
      [
        "ለዉ",
        -9.813004509526122
      ],
      [
        "▁ሽፋን",
        -9.8138101141549
      ],
      [
        "▁ሥላሴ",
        -9.813968169555109
      ],
      [
        "ሄዱ",
        -9.815205117041526
      ],
      [
        "▁እነርሱ",
        -9.815535596292824
      ],
      [
        "▁ለመረዳት",
        -9.815610969373074
      ],
      [
        "▁የመጣው",
        -9.816509962382815
      ],
      [
        "መለሱ",
        -9.816650136264082
      ],
      [
        "▁የባህል",
        -9.818042131070888
      ],
      [
        "አቸው",
        -9.818060053967251
      ],
      [
        "▁የተደረገው",
        -9.818743352770625
      ],
      [
        "▁ክትትል",
        -9.819240033814411
      ],
      [
        "▁ፔ",
        -9.819291138218372
      ],
      [
        "▁በፍቅር",
        -9.819382356871644
      ],
      [
        "▁ዴሞክራሲ",
        -9.819389247296993
      ],
      [
        "▁ወንጌል",
        -9.82023121627766
      ],
      [
        "ዘው",
        -9.820532547076748
      ],
      [
        "▁ገልፀዋል",
        -9.820672490829883
      ],
      [
        "▁በድጋሚ",
        -9.821372775041892
      ],
      [
        "▁የአቶ",
        -9.821772986085696
      ],
      [
        "ቶችን",
        -9.822030172312004
      ],
      [
        "▁ስሙ",
        -9.822443439382008
      ],
      [
        "ዎቻችን",
        -9.822531936901289
      ],
      [
        "▁እውን",
        -9.822746181107844
      ],
      [
        "▁የተለያየ",
        -9.823078394516594
      ],
      [
        "▁አስተ",
        -9.823115546474208
      ],
      [
        "ሰጡ",
        -9.82365435135943
      ],
      [
        "በራ",
        -9.82644034943453
      ],
      [
        "▁ባህሪ",
        -9.82649116770447
      ],
      [
        "ፊያ",
        -9.827070972767208
      ],
      [
        "በዛ",
        -9.8272123145682
      ],
      [
        "▁እየተባለ",
        -9.82787043788303
      ],
      [
        "▁የለበትም",
        -9.82838930182526
      ],
      [
        "▁እንዳት",
        -9.829258181835204
      ],
      [
        "ላቸውን",
        -9.829572241183438
      ],
      [
        "▁ብፁዕ",
        -9.830238167538354
      ],
      [
        "▁እንደነበረ",
        -9.830303389417796
      ],
      [
        "▁ባህላዊ",
        -9.831760035043825
      ],
      [
        "▁አስፈጻሚ",
        -9.832146072260658
      ],
      [
        "▁ይጠ",
        -9.832190474591156
      ],
      [
        "▁ባደረጉት",
        -9.832558509244308
      ],
      [
        "▁አሉ፡፡",
        -9.832666204437311
      ],
      [
        "▁P",
        -9.834028515377671
      ],
      [
        "▁ሆን",
        -9.834088846332088
      ],
      [
        "ልቅ",
        -9.834328180001547
      ],
      [
        "▁በአለም",
        -9.835016842431102
      ],
      [
        "▁ፕሮጀክቶች",
        -9.836065585044302
      ],
      [
        "▁ወልደ",
        -9.836865228497992
      ],
      [
        "ጮ",
        -9.836955998817718
      ],
      [
        "ሔ",
        -9.837445493435684
      ],
      [
        "ጠብቅ",
        -9.837447552004688
      ],
      [
        "▁ለመመለስ",
        -9.837649939041324
      ],
      [
        "▁ይዘ",
        -9.838003155200616
      ],
      [
        "▁ትርፍ",
        -9.838115676160292
      ],
      [
        "ሙት",
        -9.838164369962351
      ],
      [
        "▁ገባ",
        -9.838258261328791
      ],
      [
        "ጠየቅ",
        -9.83835903459538
      ],
      [
        "▁የመረጃ",
        -9.838513164688615
      ],
      [
        "▁የከፋ",
        -9.839158095680656
      ],
      [
        "ሆነ",
        -9.840137305192636
      ],
      [
        "▁ማረጋገጫ",
        -9.840911550175706
      ],
      [
        "▁የቻይና",
        -9.841204206692186
      ],
      [
        "ቀለ",
        -9.84277320317517
      ],
      [
        "▁ጴጥሮስ",
        -9.842795993826584
      ],
      [
        "▁ሴራ",
        -9.843237136444571
      ],
      [
        "ዘን",
        -9.843860161853495
      ],
      [
        "ቀርብ",
        -9.846019189760238
      ],
      [
        "ሏቸው",
        -9.846288644894956
      ],
      [
        "▁መንደር",
        -9.84690924177802
      ],
      [
        "▁አጋ",
        -9.848114314695303
      ],
      [
        "▁ደካማ",
        -9.848114770228396
      ],
      [
        "▁ያለፈ",
        -9.849229535042786
      ],
      [
        "▁ሚካኤል",
        -9.849840616028107
      ],
      [
        "ገነባ",
        -9.850124673025782
      ],
      [
        "ሺህ",
        -9.850171958192126
      ],
      [
        "፤››",
        -9.8503123025542
      ],
      [
        ";",
        -9.850413694298286
      ],
      [
        "▁ቶሎ",
        -9.850786651269985
      ],
      [
        "▁ሰሜን",
        -9.850899160067588
      ],
      [
        "▁በዛ",
        -9.852213179386084
      ],
      [
        "▁ባሉት",
        -9.852355591173165
      ],
      [
        "▁ዘርፎች",
        -9.853438425844898
      ],
      [
        "▁የጀመረው",
        -9.85396832020544
      ],
      [
        "ላላ",
        -9.854070628511694
      ],
      [
        "▁ይህንኑ",
        -9.854273017848074
      ],
      [
        "▁ብቅ",
        -9.854335012163864
      ],
      [
        "▁አብዛኛው",
        -9.854930834809386
      ],
      [
        "ፋት",
        -9.855052062590048
      ],
      [
        "▁መረጃዎችን",
        -9.855468987749184
      ],
      [
        "▁ለመያዝ",
        -9.855745883970052
      ],
      [
        "▁ሕክምና",
        -9.85598529191
      ],
      [
        "▁በህግ",
        -9.857577845002972
      ],
      [
        "▁ከሚያ",
        -9.858052144144391
      ],
      [
        "▁ይፈ",
        -9.858101776339334
      ],
      [
        "▁የሚያደርገው",
        -9.858348068999447
      ],
      [
        "o",
        -9.858660047995617
      ],
      [
        "ፈስ",
        -9.859231312682043
      ],
      [
        "▁አዋጁ",
        -9.859599978931888
      ],
      [
        "ለፍ",
        -9.860271079651085
      ],
      [
        "▁የቅዱስ",
        -9.860872128333249
      ],
      [
        "▁ይወ",
        -9.861554727289404
      ],
      [
        "▁የተጀመረው",
        -9.86236203998759
      ],
      [
        "▁ስብከት",
        -9.862400119612332
      ],
      [
        "▁አደራ",
        -9.862480980857072
      ],
      [
        "▁የአካባቢው",
        -9.863094312546377
      ],
      [
        "▁ምህረት",
        -9.863358897013429
      ],
      [
        "▁በስራ",
        -9.863451163637103
      ],
      [
        "▁የባቡር",
        -9.863679781945889
      ],
      [
        "መነ",
        -9.863724347376584
      ],
      [
        "▁የግብርና",
        -9.864495023094312
      ],
      [
        "ወች",
        -9.864695158541858
      ],
      [
        "▁የነ",
        -9.864781754637404
      ],
      [
        "▁ዲሞክራሲ",
        -9.865593196528216
      ],
      [
        "▁በእኛ",
        -9.865670031303456
      ],
      [
        "▁የቀረበ",
        -9.865828284250036
      ],
      [
        "▁በ19",
        -9.866187956812308
      ],
      [
        "▁አውሮፓ",
        -9.866331424048935
      ],
      [
        "▁ይኖራል",
        -9.86658471442161
      ],
      [
        "▁መታ",
        -9.866598601025656
      ],
      [
        "▁ፈንታ",
        -9.867147907706013
      ],
      [
        "▁በአጭር",
        -9.867174341998334
      ],
      [
        "▁መውጣት",
        -9.867318917887236
      ],
      [
        "ገላ",
        -9.8674394897427
      ],
      [
        "▁መዋቅር",
        -9.867630536949786
      ],
      [
        "▁ይታወቃል",
        -9.867934101464868
      ],
      [
        "▁ምናምን",
        -9.867984747030208
      ],
      [
        "ኤል",
        -9.86846874785583
      ],
      [
        "ጣቸው",
        -9.868863354705146
      ],
      [
        "▁ሰይጣን",
        -9.868993855290244
      ],
      [
        "▁ውጤቶች",
        -9.869106436069888
      ],
      [
        "▁ማሳያ",
        -9.86980978690114
      ],
      [
        "ቴን",
        -9.86986065058789
      ],
      [
        "▁በራሳቸው",
        -9.870166801995303
      ],
      [
        "▁ወረቀት",
        -9.870903273273928
      ],
      [
        "▁ስብስብ",
        -9.87117972036476
      ],
      [
        "▁የአካል",
        -9.871734874655026
      ],
      [
        "ቃቸው",
        -9.87176918484154
      ],
      [
        "▁ምሥክሮች",
        -9.871805284669144
      ],
      [
        "▁ወላጆች",
        -9.871918874348154
      ],
      [
        "▁ዩናይትድ",
        -9.871997780550778
      ],
      [
        "▁ምኒልክ",
        -9.872014288343705
      ],
      [
        "▁ለእኔ",
        -9.872043914572632
      ],
      [
        "▁መያዝ",
        -9.87218558726236
      ],
      [
        "መጥ",
        -9.872200738476057
      ],
      [
        "▁በግ",
        -9.872331694693012
      ],
      [
        "▁በዋናነት",
        -9.872520917113558
      ],
      [
        "▁ክስተት",
        -9.873286456333425
      ],
      [
        "▁ያሰ",
        -9.87351604280158
      ],
      [
        "▁ለመናገር",
        -9.87437883408258
      ],
      [
        "▁ግዙፍ",
        -9.874758895979989
      ],
      [
        "▁ስልት",
        -9.87508677244404
      ],
      [
        "ባር",
        -9.875273661578358
      ],
      [
        "▁ነች",
        -9.87769547641692
      ],
      [
        "▁ፀረ",
        -9.877918077063994
      ],
      [
        "▁እስክንድር",
        -9.878009123240645
      ],
      [
        "▁ተሰማ",
        -9.87844417776088
      ],
      [
        "ርሱ",
        -9.878751079216762
      ],
      [
        "▁ይመጣል",
        -9.878791619177417
      ],
      [
        "በሩ",
        -9.879180183708351
      ],
      [
        "▁አንዳንዶቹ",
        -9.87920747749013
      ],
      [
        "▁ሰብዓዊ",
        -9.87929479964972
      ],
      [
        "ጣሉ",
        -9.87975099080159
      ],
      [
        "▁ካስ",
        -9.879859720139413
      ],
      [
        "▁ማዕከላዊ",
        -9.880037257727135
      ],
      [
        "▁ሃላፊ",
        -9.880219828023424
      ],
      [
        "▁የሥነ",
        -9.8806979788599
      ],
      [
        "ጣት",
        -9.882372096168217
      ],
      [
        "ራችን",
        -9.883002036199926
      ],
      [
        "▁ግቢ",
        -9.883244771782856
      ],
      [
        "▁ምንድነው",
        -9.883252057636982
      ],
      [
        "መረ",
        -9.883471051853869
      ],
      [
        "ግል",
        -9.884084459030417
      ],
      [
        "▁ጀርባ",
        -9.884276001763045
      ],
      [
        "▁ቀረ",
        -9.884468056694764
      ],
      [
        "▁ነጭ",
        -9.884788523636308
      ],
      [
        "▁እርግጠኛ",
        -9.885084090705629
      ],
      [
        "▁አማካይነት",
        -9.885979838813547
      ],
      [
        "▁ገልጸዋል።",
        -9.887590422343656
      ],
      [
        "▁ትራንስፖርት",
        -9.888208508149969
      ],
      [
        "▁አኳያ",
        -9.888424133095697
      ],
      [
        "▁እስራኤል",
        -9.888691129575689
      ],
      [
        "▁በህዝብ",
        -9.888749935452054
      ],
      [
        "▁ህልውና",
        -9.888798808637086
      ],
      [
        "አይ",
        -9.88889454923323
      ],
      [
        "▁ጋራ",
        -9.889358559009342
      ],
      [
        "▁ለማቅረብ",
        -9.889480859553933
      ],
      [
        "ለች",
        -9.891348500710858
      ],
      [
        "▁ጓደኛ",
        -9.89253927140861
      ],
      [
        "▁አንዱን",
        -9.892747935858146
      ],
      [
        "▁ጎዳና",
        -9.893380598371412
      ],
      [
        "ገራ",
        -9.893524236609837
      ],
      [
        "▁ብዙሃን",
        -9.893984590264656
      ],
      [
        "ነህ",
        -9.894616584321394
      ],
      [
        "▁አንቺ",
        -9.89518697131508
      ],
      [
        "▁አላውቅም",
        -9.895375682674668
      ],
      [
        "▁መምሪያ",
        -9.895523662384033
      ],
      [
        "▁ሰጥቶ",
        -9.895609505268816
      ],
      [
        "▁ደን",
        -9.895916568150822
      ],
      [
        "ዳር",
        -9.89680815951288
      ],
      [
        "ብራ",
        -9.896950219258162
      ],
      [
        "▁ተጫዋች",
        -9.897211996515813
      ],
      [
        "▁ሆና",
        -9.89743239995606
      ],
      [
        "▁እየተካሄደ",
        -9.897543648394906
      ],
      [
        "▁ቀርቦ",
        -9.899684701762144
      ],
      [
        "ኞቹ",
        -9.900302659291595
      ],
      [
        "▁ሰበብ",
        -9.90110307725576
      ],
      [
        "ረዱ",
        -9.901806698594164
      ],
      [
        "አንድ",
        -9.9018488771166
      ],
      [
        "▁ሕዝባዊ",
        -9.901886265848544
      ],
      [
        "ብህ",
        -9.901947277647768
      ],
      [
        "▁ይሆናል፡፡",
        -9.90364674546135
      ],
      [
        "▁አጠቃቀም",
        -9.903792396481592
      ],
      [
        "▁በየዓመቱ",
        -9.904044574151506
      ],
      [
        "▁(ከ",
        -9.904753802205922
      ],
      [
        "▁የሚሆኑት",
        -9.905041531140157
      ],
      [
        "▁አረ",
        -9.905136772681624
      ],
      [
        "▁ቀዳሚ",
        -9.905247467815704
      ],
      [
        "▁የውስጥ",
        -9.906153201003756
      ],
      [
        "ጠፉ",
        -9.90622774037124
      ],
      [
        "▁ችግሮችን",
        -9.90659879528963
      ],
      [
        "▁ገደብ",
        -9.90692359933202
      ],
      [
        "▁ያልሆኑ",
        -9.907273979577464
      ],
      [
        "ችሁን",
        -9.907671016103157
      ],
      [
        "▁ጆሮ",
        -9.907785175167
      ],
      [
        "ረት",
        -9.90788622141732
      ],
      [
        "▁የሌላቸው",
        -9.90867428006149
      ],
      [
        "▁እንደሚገኝ",
        -9.90884421520408
      ],
      [
        "▁መብራት",
        -9.908906637669986
      ],
      [
        "▁ኤም",
        -9.9089506744003
      ],
      [
        "▁እንደምን",
        -9.9093027631205
      ],
      [
        "▁መርህ",
        -9.909434881213624
      ],
      [
        "ጥቅ",
        -9.909754159222317
      ],
      [
        "▁ይለ",
        -9.910086017897004
      ],
      [
        "ነታቸውን",
        -9.91013937637904
      ],
      [
        "ዋት",
        -9.910641068760404
      ],
      [
        "▁ሸዋ",
        -9.911749465019332
      ],
      [
        "▁መል",
        -9.912258911397934
      ],
      [
        "▁ነሐሴ",
        -9.9122794075017
      ],
      [
        "▁ሲመጣ",
        -9.91274743296186
      ],
      [
        "ጥል",
        -9.912974459637724
      ],
      [
        "ቾ",
        -9.913223681839662
      ],
      [
        "▁ኬ",
        -9.913321322676593
      ],
      [
        "▁ሰጪ",
        -9.913321539285926
      ],
      [
        "▁እር",
        -9.91345257798912
      ],
      [
        "▁የተሰጠው",
        -9.913653858975469
      ],
      [
        "ያው",
        -9.913866214929222
      ],
      [
        "▁እሱም",
        -9.91435249944722
      ],
      [
        "▁2019",
        -9.914393905345198
      ],
      [
        "▁ተሳታፊ",
        -9.914723592307466
      ],
      [
        "▁አሉ።",
        -9.915280366145565
      ],
      [
        "▁ስያሜ",
        -9.916027118736142
      ],
      [
        "▁እንዳለባቸው",
        -9.91668806049414
      ],
      [
        "ላሉ",
        -9.916788327681992
      ],
      [
        "▁በአገራችን",
        -9.917185471590264
      ],
      [
        "ራዊ",
        -9.917633152431993
      ],
      [
        "▁ክልላዊ",
        -9.917765627453017
      ],
      [
        "ቻል",
        -9.91811546871631
      ],
      [
        "▁በየቀኑ",
        -9.918660143532056
      ],
      [
        "▁የሚደረገው",
        -9.9190497020922
      ],
      [
        "▁ቆሻሻ",
        -9.919152373086892
      ],
      [
        "▁አስታውቋል",
        -9.91942506335413
      ],
      [
        "አዲስ",
        -9.91970220671677
      ],
      [
        "▁አድርገን",
        -9.91993499306888
      ],
      [
        "▁ይቀጥላል",
        -9.920308908606565
      ],
      [
        "▁ጠባቂ",
        -9.920609647359468
      ],
      [
        "▁የክልል",
        -9.92073065821489
      ],
      [
        "▁ለሰው",
        -9.920886625341089
      ],
      [
        "▁ክፍት",
        -9.921383934059437
      ],
      [
        "▁ፍልስፍና",
        -9.921502332265892
      ],
      [
        "▁ቅድስት",
        -9.922068728202174
      ],
      [
        "▁ትእዛዝ",
        -9.924212990181976
      ],
      [
        "▁ሰኞ",
        -9.92427542170079
      ],
      [
        "▁መቀ",
        -9.92430837721229
      ],
      [
        "▁ጣቢያዎች",
        -9.924584481452769
      ],
      [
        "እኔ",
        -9.926954653558049
      ],
      [
        "▁አቅ",
        -9.926973715808709
      ],
      [
        "ሟል",
        -9.927070899467848
      ],
      [
        "▁ትላንት",
        -9.92752528960002
      ],
      [
        "▁የድርጅቱ",
        -9.928531375228053
      ],
      [
        "▁ለጊዜው",
        -9.928882755767562
      ],
      [
        "▁በሁለቱ",
        -9.929145015471304
      ],
      [
        "▁በአንዳንድ",
        -9.930057304312465
      ],
      [
        "▁በራስ",
        -9.930156141418903
      ],
      [
        "▁የበላይ",
        -9.930745504345692
      ],
      [
        "▁ዛፍ",
        -9.931309960377543
      ],
      [
        "▁እየሰራ",
        -9.93145174807155
      ],
      [
        "ባቸዋል",
        -9.931480275785654
      ],
      [
        "ኸ",
        -9.931592413941592
      ],
      [
        "▁ስጋ",
        -9.932989960599658
      ],
      [
        "▁ለፍርድ",
        -9.93386178476274
      ],
      [
        "▁በታሪክ",
        -9.934660992233088
      ],
      [
        "▁አገራዊ",
        -9.935067899879373
      ],
      [
        "▁የመጡ",
        -9.935577086250186
      ],
      [
        "ኖቹ",
        -9.937240785246392
      ],
      [
        "▁ብቸኛ",
        -9.938398906546563
      ],
      [
        "▁ኬንያ",
        -9.938922188720518
      ],
      [
        "▁አደር",
        -9.94118285137004
      ],
      [
        "ጠሩ",
        -9.941751320661345
      ],
      [
        "▁ይአ",
        -9.941910867838205
      ],
      [
        "▁መቀበል",
        -9.942553337282236
      ],
      [
        "▁ግማሽ",
        -9.94304485073608
      ],
      [
        "▁ኤጀንሲ",
        -9.94318363355168
      ],
      [
        "▁ጠዋት",
        -9.943449216274358
      ],
      [
        "▁2014",
        -9.943511485659265
      ],
      [
        "▁ባቡር",
        -9.943993552778757
      ],
      [
        "▁የተለመደ",
        -9.9442167983225
      ],
      [
        "ህም",
        -9.94430473223954
      ],
      [
        "▁የተወሰኑ",
        -9.94611721662721
      ],
      [
        "ላንድ",
        -9.947273354092133
      ],
      [
        "ፈቱ",
        -9.94741766246315
      ],
      [
        "▁ያደረጉ",
        -9.94789912648873
      ],
      [
        "ገነ",
        -9.948326616316216
      ],
      [
        "▁ህዳር",
        -9.94900815746447
      ],
      [
        "▁ሃይሎች",
        -9.949136237990349
      ],
      [
        "▁የአስቸኳይ",
        -9.949681733790907
      ],
      [
        "ራችሁ",
        -9.950089017439158
      ],
      [
        "ከተ",
        -9.950126511773243
      ],
      [
        "▁እንዳላቸው",
        -9.950578758895627
      ],
      [
        "ሀል",
        -9.950652732986836
      ],
      [
        "▁እንዳስ",
        -9.950969089603184
      ],
      [
        "▁መንግስታዊ",
        -9.951172217005302
      ],
      [
        "▁በአንድነት",
        -9.951785034959777
      ],
      [
        "▁የወንጀል",
        -9.952421891544414
      ],
      [
        "▁መሥሪያ",
        -9.952915661229715
      ],
      [
        "ሳሉ",
        -9.953247988788648
      ],
      [
        "ስተር",
        -9.953378157520326
      ],
      [
        "▁ይሆናሉ",
        -9.953638509446554
      ],
      [
        "▁እንደሌለ",
        -9.953842524988454
      ],
      [
        "▁ያም",
        -9.954014329664714
      ],
      [
        "ረብ",
        -9.95404477606592
      ],
      [
        "▁ቅር",
        -9.954176089757052
      ],
      [
        "▁ሊኖር",
        -9.954373226809102
      ],
      [
        "▁የቅርብ",
        -9.95493294754195
      ],
      [
        "▁አለ፡፡",
        -9.955654258876674
      ],
      [
        "ሷ",
        -9.955960940428634
      ],
      [
        "ጊያ",
        -9.956104434173469
      ],
      [
        "ባይ",
        -9.956584696568832
      ],
      [
        "▁በሕይወት",
        -9.956842485393928
      ],
      [
        "ዟ",
        -9.957042652234708
      ],
      [
        "▁ይፈልጋል",
        -9.957443657273032
      ],
      [
        "▁የስልጣን",
        -9.958511475065515
      ],
      [
        "▁ብቻውን",
        -9.959369785882757
      ],
      [
        "ደይ",
        -9.959853587693644
      ],
      [
        "ቶቻችን",
        -9.9598852329855
      ],
      [
        "ሪዎች",
        -9.959896409968309
      ],
      [
        "▁ይሄንን",
        -9.959956362492488
      ],
      [
        "▁ነዳጅ",
        -9.95999834391593
      ],
      [
        "▁የማስ",
        -9.961231668276213
      ],
      [
        "▁በማቅረብ",
        -9.961351441120172
      ],
      [
        "▁በሕዝብ",
        -9.961531145344193
      ],
      [
        "▁እውነታ",
        -9.961722914483165
      ],
      [
        "▁የሌሎች",
        -9.961941185992062
      ],
      [
        "▁ምልክቶች",
        -9.96241716366709
      ],
      [
        "ላቸዉ",
        -9.962790021791912
      ],
      [
        "▁ኃጢአት",
        -9.962873110245049
      ],
      [
        "▁አቤቱታ",
        -9.96325521402752
      ],
      [
        "▁ተከታዮች",
        -9.964016069758229
      ],
      [
        "ተዉ",
        -9.964759786639302
      ],
      [
        "▁የሰብአዊ",
        -9.965129823631992
      ],
      [
        "▁ዕውቀት",
        -9.965183602167023
      ],
      [
        "▁2006",
        -9.965631385481077
      ],
      [
        "ደግ",
        -9.966055943571106
      ],
      [
        "▁ለሕዝብ",
        -9.966783520813085
      ],
      [
        "▁መስተዳድር",
        -9.966882258583004
      ],
      [
        "▁ቀጣይ",
        -9.967660543634109
      ],
      [
        "ሳት",
        -9.968606439737297
      ],
      [
        "▁መግባባት",
        -9.96863330437157
      ],
      [
        "▁ያለባቸው",
        -9.96939206055463
      ],
      [
        "▁የተገኘ",
        -9.969838536466105
      ],
      [
        "ተራ",
        -9.970511546753183
      ],
      [
        "▁በጀርመን",
        -9.971249793088177
      ],
      [
        "ጹ",
        -9.972122630289618
      ],
      [
        "ዷ",
        -9.972578147540093
      ],
      [
        "መለከት",
        -9.972697251407885
      ],
      [
        "▁ነጋዴዎች",
        -9.97319623441783
      ],
      [
        "ጠበቅ",
        -9.973326992581985
      ],
      [
        "ዓለም",
        -9.97336218383695
      ],
      [
        "▁2007",
        -9.97446729350398
      ],
      [
        "▁ማሻሻያ",
        -9.97453915017566
      ],
      [
        "▁2018",
        -9.974604588579462
      ],
      [
        "▁ሰብሳቢ",
        -9.974637111789436
      ],
      [
        "▁በሀገራችን",
        -9.975476798579397
      ],
      [
        "መልስ",
        -9.975599492191474
      ],
      [
        "▁ይደረጋል",
        -9.97771523381351
      ],
      [
        "40",
        -9.977734419194867
      ],
      [
        "▁ባን",
        -9.977771265357406
      ],
      [
        "ነጋ",
        -9.97793254802368
      ],
      [
        "▁ያድርጉ",
        -9.978019052684958
      ],
      [
        "▁በኋላም",
        -9.979497025929296
      ],
      [
        "▁በተደረገው",
        -9.979606399497872
      ],
      [
        "▁አማካሪ",
        -9.980359238249088
      ],
      [
        "ፎች",
        -9.981040284631932
      ],
      [
        "▁ሕጉ",
        -9.981633647021368
      ],
      [
        "ገደ",
        -9.982017132195692
      ],
      [
        "ለቀ",
        -9.982103578219707
      ],
      [
        "▁ተጨባጭ",
        -9.982508536145106
      ],
      [
        "▁የለም፡፡",
        -9.98259786194425
      ],
      [
        "18",
        -9.982923880270477
      ],
      [
        "▁ስትል",
        -9.983329425111757
      ],
      [
        "▁ግጥም",
        -9.98344227649102
      ],
      [
        "▁ካህናት",
        -9.983878511711143
      ],
      [
        "▁ጽሁፍ",
        -9.983936564927436
      ],
      [
        "▁በግልፅ",
        -9.98402943539394
      ],
      [
        "▁በፖለቲካ",
        -9.984336233548264
      ],
      [
        "▁ካርታ",
        -9.984355690000164
      ],
      [
        "▁የሕይወት",
        -9.984581240981656
      ],
      [
        "▁ይኼ",
        -9.985118875129086
      ],
      [
        "ባቸዉ",
        -9.985484010963026
      ],
      [
        "▁ወረዳዎች",
        -9.985571291362437
      ],
      [
        "▁ፈቃደኛ",
        -9.98582843238088
      ],
      [
        "▁አለመሆኑን",
        -9.98585141337049
      ],
      [
        "▁ሊሆኑ",
        -9.986307773026644
      ],
      [
        "▁ባሕር",
        -9.98690402645334
      ],
      [
        "▁ለመቆጣጠር",
        -9.98725779908613
      ],
      [
        "▁አሳዛኝ",
        -9.987466746230474
      ],
      [
        "ገል",
        -9.98767048088205
      ],
      [
        "ቆሙ",
        -9.988112784406631
      ],
      [
        "▁ዲግሪ",
        -9.98963404726122
      ],
      [
        "▁ለማስ",
        -9.989684950844644
      ],
      [
        "ጠቃ",
        -9.991732167095456
      ],
      [
        "▁መሀል",
        -9.991994982640223
      ],
      [
        "▁(1)",
        -9.992390939717662
      ],
      [
        "ያዙ",
        -9.99372969467102
      ],
      [
        "ፋል",
        -9.99387438313802
      ],
      [
        "ሾች",
        -9.994199451986638
      ],
      [
        "▁በሆኑ",
        -9.994347644976362
      ],
      [
        "▁ባለሥልጣን",
        -9.995136596540965
      ],
      [
        "ቀጣ",
        -9.995323460119188
      ],
      [
        "ዑ",
        -9.995880404463716
      ],
      [
        "▁አንዳርጋቸው",
        -9.996174005970245
      ],
      [
        "▁ማረጋገጥ",
        -9.996690978286605
      ],
      [
        "መከ",
        -9.996899340780296
      ],
      [
        "▁ልታ",
        -9.996910634937151
      ],
      [
        "▁ግፊት",
        -9.997845753705777
      ],
      [
        "▁ቀጣዩ",
        -9.998115312621584
      ],
      [
        "▁ሽማግሌዎች",
        -9.998277573935043
      ],
      [
        "ስለ",
        -9.998302582182513
      ],
      [
        "▁ህፃናት",
        -9.998398503253483
      ],
      [
        "▁የማድረግ",
        -9.998502550866467
      ],
      [
        "▁አሳሳቢ",
        -9.998595482673924
      ],
      [
        "▁ብረት",
        -9.99904111179862
      ],
      [
        "▁እያደረጉ",
        -9.999102122256504
      ],
      [
        "▁ለማሳደግ",
        -9.99948794107729
      ],
      [
        "ገዳ",
        -10.000037269828162
      ],
      [
        "▁ደብረ",
        -10.000412083112854
      ],
      [
        "ላቸዋል",
        -10.000722436082144
      ],
      [
        "ረሳ",
        -10.00132823934827
      ],
      [
        "ኀ",
        -10.001469721955957
      ],
      [
        "ነቃ",
        -10.001636593549536
      ],
      [
        "ብረ",
        -10.00170898141171
      ],
      [
        "▁ኢሕአዴግ",
        -10.002156089449292
      ],
      [
        "▁ያለምንም",
        -10.002565515122102
      ],
      [
        "▁ሰለሞን",
        -10.003065355821152
      ],
      [
        "▁ከመቶ",
        -10.003087575594355
      ],
      [
        "▁በተለየ",
        -10.003292552937262
      ],
      [
        "ዋል፡፡",
        -10.003378352683535
      ],
      [
        "▁የላቀ",
        -10.00344129412537
      ],
      [
        "ጧ",
        -10.00357971296135
      ],
      [
        "▁ድረ",
        -10.003820912184734
      ],
      [
        "▁ለመቀነስ",
        -10.003832675166764
      ],
      [
        "▁የደ",
        -10.003857820500729
      ],
      [
        "▁ራስን",
        -10.004041057486074
      ],
      [
        "▁ምናልባትም",
        -10.004088553678937
      ],
      [
        "▁አስፈፃሚ",
        -10.004218122128728
      ],
      [
        "▁ጥንካሬ",
        -10.004495415737418
      ],
      [
        "▁ሲታይ",
        -10.005018132061766
      ],
      [
        "▁አልጋ",
        -10.005851069949614
      ],
      [
        "ግድ",
        -10.006176644533738
      ],
      [
        "▁የተቃውሞ",
        -10.006746443962266
      ],
      [
        "▁የተመሰረተ",
        -10.007400706323963
      ],
      [
        "ቬ",
        -10.007659090447603
      ],
      [
        "▁ስላለ",
        -10.008086796028836
      ],
      [
        "▁አንዳንዶች",
        -10.008280140913408
      ],
      [
        "▁አይገባም",
        -10.008713141886371
      ],
      [
        "▁መዝገብ",
        -10.008720631956791
      ],
      [
        "▁ባስ",
        -10.008835709494525
      ],
      [
        "▁ለመገንባት",
        -10.009083090084834
      ],
      [
        "▁የነዳጅ",
        -10.009245400949206
      ],
      [
        "▁እም",
        -10.009287764184077
      ],
      [
        "▁ተሞክሮ",
        -10.009339510489845
      ],
      [
        "▁እናቶች",
        -10.009514967952724
      ],
      [
        "▁ሰፈር",
        -10.009780101678896
      ],
      [
        "ስማማ",
        -10.010310002001038
      ],
      [
        "%",
        -10.01034701340184
      ],
      [
        "▁እንዲኖር",
        -10.01049759214568
      ],
      [
        "▁በዘር",
        -10.010589680035388
      ],
      [
        "▁ምስል",
        -10.01069067204532
      ],
      [
        "▁ምስራቅ",
        -10.010692834352245
      ],
      [
        "▁ወግ",
        -10.011566803647868
      ],
      [
        "▁ምክንያቱ",
        -10.011657929248091
      ],
      [
        "▁ለእ",
        -10.01199294361356
      ],
      [
        "▁ጉልበት",
        -10.012150969836515
      ],
      [
        "▁እርሱም",
        -10.012332589621527
      ],
      [
        "▁እንስሳት",
        -10.01354986175406
      ],
      [
        "▁ጸሎት",
        -10.013589111378272
      ],
      [
        "▁በእስር",
        -10.01376196743962
      ],
      [
        "▁አዘጋጅ",
        -10.014125013411867
      ],
      [
        "▁ሳት",
        -10.014169246507844
      ],
      [
        "▁እ.ኤ.አ",
        -10.014414207185656
      ],
      [
        "ጠጣ",
        -10.014654028768554
      ],
      [
        "▁ቪዲዮ",
        -10.015509163911425
      ],
      [
        "▁ያሳያል",
        -10.015727112584065
      ],
      [
        "▁‹‹የ",
        -10.01588363504024
      ],
      [
        "▁የዋጋ",
        -10.01614894616191
      ],
      [
        "▁ስኬት",
        -10.016230215861215
      ],
      [
        "▁የቆየ",
        -10.016665752254609
      ],
      [
        "ሮቹ",
        -10.017508939631924
      ],
      [
        "▁በእኔ",
        -10.017700805461436
      ],
      [
        "▁የሚመራው",
        -10.017710016828262
      ],
      [
        "ዳል",
        -10.018272084441142
      ],
      [
        "ስቲ",
        -10.01850146589736
      ],
      [
        "ደርሱ",
        -10.018975140143995
      ],
      [
        "▁የአንድነት",
        -10.019074070250833
      ],
      [
        "▁መን",
        -10.01909655256446
      ],
      [
        "DW",
        -10.019961630092965
      ],
      [
        "ፈጠሩ",
        -10.020505752648562
      ],
      [
        "ቂያ",
        -10.020662749022224
      ],
      [
        "▁የማን",
        -10.022007955454052
      ],
      [
        "▁ደስተኛ",
        -10.02228701202439
      ],
      [
        "▁እነሱን",
        -10.022756948767078
      ],
      [
        "▁ሰማያዊ",
        -10.022793460271927
      ],
      [
        "ረር",
        -10.022794343669258
      ],
      [
        "▁የገለጹት",
        -10.022800345797222
      ],
      [
        "▁ተነስቶ",
        -10.022876883336394
      ],
      [
        "ያል",
        -10.02360326435612
      ],
      [
        "▁የመገናኛ",
        -10.023970288045549
      ],
      [
        "▁መቀጠል",
        -10.024666914730654
      ],
      [
        "ይዝ",
        -10.025580440432996
      ],
      [
        "▁ገብተው",
        -10.025676729336432
      ],
      [
        "▁በሚመለከት",
        -10.025839665236754
      ],
      [
        "▁የወ",
        -10.025963152740466
      ],
      [
        "▁ክፍተት",
        -10.026219436596476
      ],
      [
        "▁ድሮ",
        -10.026445779956756
      ],
      [
        "▁ለእኛ",
        -10.026845113176158
      ],
      [
        "▁ስለዚህም",
        -10.027473420136412
      ],
      [
        "▁የደህንነት",
        -10.027486243607182
      ],
      [
        "▁ለማምጣት",
        -10.027846147702013
      ],
      [
        "▁ከየት",
        -10.0282649681638
      ],
      [
        "ፈሩ",
        -10.028633676839783
      ],
      [
        "▁በመጨረሻ",
        -10.028652429489776
      ],
      [
        "▁መንግሥታዊ",
        -10.029342596847368
      ],
      [
        "▁አገራችን",
        -10.029701354327434
      ],
      [
        "ናል።",
        -10.030323528898045
      ],
      [
        "▁በሆነው",
        -10.03049581121799
      ],
      [
        "▁ፌዴሬሽን",
        -10.030911730665714
      ],
      [
        "▁እግዚአብሔርን",
        -10.030988490851437
      ],
      [
        "መሩ",
        -10.031103599932736
      ],
      [
        "▁ህዝቡን",
        -10.031257966385686
      ],
      [
        "▁እንደተናገሩት",
        -10.031323496742951
      ],
      [
        "▁የውድድር",
        -10.031668075553693
      ],
      [
        "▁የኑሮ",
        -10.031768272850233
      ],
      [
        "ማርያም",
        -10.031872627949692
      ],
      [
        "ግር",
        -10.032633159118966
      ],
      [
        "▁ደራሲ",
        -10.03279084416165
      ],
      [
        "▁ከእኛ",
        -10.033004345116378
      ],
      [
        "▁2017",
        -10.033494720995758
      ],
      [
        "▁ማኅበረሰብ",
        -10.034319928086596
      ],
      [
        "▁ትግሬ",
        -10.034343459402242
      ],
      [
        "25",
        -10.03449926683592
      ],
      [
        "▁ኧረ",
        -10.03516693426261
      ],
      [
        "▁ይሆን?",
        -10.035262447369872
      ],
      [
        "▁መገለጫ",
        -10.035532432568498
      ],
      [
        "▁ለመጠበቅ",
        -10.036332673164626
      ],
      [
        "▁ዘመናት",
        -10.036646708885458
      ],
      [
        "▁ሥልጠና",
        -10.036665310559592
      ],
      [
        "▁ናቸው.",
        -10.037102611774912
      ],
      [
        "▁አቻ",
        -10.03726785936204
      ],
      [
        "▁የእስራኤል",
        -10.037374972669324
      ],
      [
        "▁እስረኞች",
        -10.037583432059366
      ],
      [
        "ፈለግ",
        -10.038687037632211
      ],
      [
        "ጆች",
        -10.0388020044323
      ],
      [
        "▁ኃይሉ",
        -10.039861360091331
      ],
      [
        "▁ነበሩ።",
        -10.040045862046238
      ],
      [
        "▁የፈጠራ",
        -10.04010920847013
      ],
      [
        "▁በሞት",
        -10.04016076384511
      ],
      [
        "▁ታውቋል",
        -10.040208085538096
      ],
      [
        "ዳቸው",
        -10.04055806595789
      ],
      [
        "▁የቤተሰብ",
        -10.041209546571606
      ],
      [
        "▁ማኅበራዊ",
        -10.04133110586943
      ],
      [
        "▁አትሌቶች",
        -10.041427477419097
      ],
      [
        "▁ለብዙ",
        -10.041606797189594
      ],
      [
        "▁ደግ",
        -10.041666901196333
      ],
      [
        "▁አለበት፡፡",
        -10.04167135607493
      ],
      [
        "ደመ",
        -10.041937031612925
      ],
      [
        "▁አድርገዋል",
        -10.041992217378445
      ],
      [
        "▁ሄዶ",
        -10.04250326649366
      ],
      [
        "▁ለማጥፋት",
        -10.042847044850364
      ],
      [
        "▁ምስክር",
        -10.043118151233864
      ],
      [
        "▁ምንዛሪ",
        -10.04330028642872
      ],
      [
        "▁በተካሄደው",
        -10.043368212698509
      ],
      [
        "▁ነበር፤",
        -10.044040861370938
      ],
      [
        "▁ውሸት",
        -10.044184088655154
      ],
      [
        "በትና",
        -10.044384887020092
      ],
      [
        "▁ተልዕኮ",
        -10.044680407960666
      ],
      [
        "▁ፋይዳ",
        -10.0453060539309
      ],
      [
        "▁ሩጫ",
        -10.045688220045625
      ],
      [
        "▁መሆኑንም",
        -10.045892531188064
      ],
      [
        "▁በልዩ",
        -10.045892929429613
      ],
      [
        "▁ኤሌክትሪክ",
        -10.04589493423014
      ],
      [
        "▁ኢሳያስ",
        -10.046523778540688
      ],
      [
        "▁በቅ",
        -10.046734124465855
      ],
      [
        "▁እራሱ",
        -10.047082153175843
      ],
      [
        "▁ስላል",
        -10.047368322683573
      ],
      [
        "▁የራስ",
        -10.04758099470416
      ],
      [
        "▁ሚዲያዎች",
        -10.047638831869175
      ],
      [
        "▁ፕሮ",
        -10.047812641003285
      ],
      [
        "▁አስደናቂ",
        -10.047963540062575
      ],
      [
        "▁ራሳቸው",
        -10.04849097549788
      ],
      [
        "▁ኢንቨስትመንት",
        -10.049132065781476
      ],
      [
        "▁መኖሩን",
        -10.049769769640754
      ],
      [
        "▁ባንኮች",
        -10.049802082080626
      ],
      [
        "▁ጃዋር",
        -10.050072683949104
      ],
      [
        "ዲስ",
        -10.05038080970516
      ],
      [
        "▁የፍርድ",
        -10.050624082546038
      ],
      [
        "▁መላው",
        -10.05101272093454
      ],
      [
        "▁በኤርትራ",
        -10.051113693039111
      ],
      [
        "▁በመግለጽ",
        -10.0515100183679
      ],
      [
        "ኸው",
        -10.051515026861807
      ],
      [
        "ርሃ",
        -10.051862273054354
      ],
      [
        "ሏ",
        -10.052695118994212
      ],
      [
        "▁የጨረታ",
        -10.054122416029644
      ],
      [
        "▁አቆጣጠር",
        -10.05504684214532
      ],
      [
        "ኳቸው",
        -10.055186563275852
      ],
      [
        "▁በኮሮና",
        -10.055226963593636
      ],
      [
        "▁ጥላ",
        -10.055466923268789
      ],
      [
        "▁የአካባቢ",
        -10.056178282511157
      ],
      [
        "▁የገበያ",
        -10.056371374180426
      ],
      [
        "▁ባዶ",
        -10.0567568599751
      ],
      [
        "▁ሳምንታት",
        -10.057377062884171
      ],
      [
        "▁እንድታ",
        -10.057606950298505
      ],
      [
        "▁አየ",
        -10.057899072892296
      ],
      [
        "▁አስቸኳይ",
        -10.057932216695722
      ],
      [
        "▁ይከ",
        -10.05840677733595
      ],
      [
        "▁ሀገራዊ",
        -10.058752354510236
      ],
      [
        "▁መሰ",
        -10.05890569329062
      ],
      [
        "▁ለረጅም",
        -10.05897385181624
      ],
      [
        "ሞላ",
        -10.05935793376942
      ],
      [
        "▁ተናገሩ",
        -10.059595290279647
      ],
      [
        "▁ልቦና",
        -10.060079791862693
      ],
      [
        "▁ኮሚቴው",
        -10.060484860140528
      ],
      [
        "▁አሊ",
        -10.060570761356756
      ],
      [
        "▁ወጣቱ",
        -10.061131079564456
      ],
      [
        "▁ጽሕፈት",
        -10.061223098096866
      ],
      [
        "▁ለማንኛውም",
        -10.061361487423378
      ],
      [
        "▁ጥናቶች",
        -10.061485872477032
      ],
      [
        "▁(1",
        -10.062547260190572
      ],
      [
        "ነቀ",
        -10.06297621525379
      ],
      [
        "▁እንቅስቃሴዎች",
        -10.063046362504169
      ],
      [
        "▁መስሎ",
        -10.063152464857644
      ],
      [
        "▁ካርድ",
        -10.063189832236397
      ],
      [
        "ችኋል",
        -10.063404594312535
      ],
      [
        "▁አይመስለኝም",
        -10.063669318354746
      ],
      [
        "▁ደረሰ",
        -10.064141495367394
      ],
      [
        "▁ከሆኑ",
        -10.064172510564394
      ],
      [
        "▁መመልከት",
        -10.064406112286978
      ],
      [
        "▁ሁሉን",
        -10.06471733772822
      ],
      [
        "a",
        -10.064776345927564
      ],
      [
        "ስቱ",
        -10.065123232025314
      ],
      [
        "▁ብዙዎቹ",
        -10.0652259401679
      ],
      [
        "▁ለማሳየት",
        -10.065329280237409
      ],
      [
        "▁የሰጠው",
        -10.06542131203304
      ],
      [
        "▁ውድድሮች",
        -10.0654334539346
      ],
      [
        "▁ለፊት",
        -10.065658576725472
      ],
      [
        "ቮ",
        -10.066343675272098
      ],
      [
        "▁ድራማ",
        -10.06645816838163
      ],
      [
        "▁የህይወት",
        -10.066473461312702
      ],
      [
        "▁ቪ",
        -10.067061029970976
      ],
      [
        "▁አማ",
        -10.067062085888905
      ],
      [
        "▁በጥሩ",
        -10.067502540843268
      ],
      [
        "▁ጠ/ሚ",
        -10.068090439960542
      ],
      [
        "▁ዕቃ",
        -10.0684518986636
      ],
      [
        "▁ለሙሉ",
        -10.068805610083576
      ],
      [
        "▁አብያተ",
        -10.069430446992476
      ],
      [
        "▁መሃል",
        -10.069780353083305
      ],
      [
        "▁ወዳጅ",
        -10.069998160434476
      ],
      [
        "ደረጉ",
        -10.07003484890818
      ],
      [
        "▁ቴሌቪዥን",
        -10.07048653040626
      ],
      [
        "ረጋ",
        -10.070542625447157
      ],
      [
        "▁ሊቃነ",
        -10.070939233661203
      ],
      [
        "ዊያን",
        -10.071283080214826
      ],
      [
        "ነገሩ",
        -10.071557770536234
      ],
      [
        "ዪ",
        -10.071565251367938
      ],
      [
        "▁ዝናብ",
        -10.071596829349849
      ],
      [
        "ጀምር",
        -10.072095368580218
      ],
      [
        "▁ምነው",
        -10.072156804491964
      ],
      [
        "!!",
        -10.072574724627962
      ],
      [
        "▁ትስስር",
        -10.073312411109695
      ],
      [
        "▁መጥቶ",
        -10.073353917899066
      ],
      [
        "▁ማስጠንቀቂያ",
        -10.07381674790068
      ],
      [
        "ገዙ",
        -10.074460961203556
      ],
      [
        "▁ይነ",
        -10.074832556023225
      ],
      [
        "▁ከሰው",
        -10.075228524012829
      ],
      [
        "ታችንን",
        -10.075742727014385
      ],
      [
        "▁ገልጿል",
        -10.076071780424144
      ],
      [
        "ጪ",
        -10.076146329911213
      ],
      [
        "t",
        -10.076213318586294
      ],
      [
        "ግባ",
        -10.076545575174846
      ],
      [
        "▁ዲሞክራሲያዊ",
        -10.076788247508848
      ],
      [
        "▁መማር",
        -10.077356784083875
      ],
      [
        "▁ይዞታ",
        -10.077442721425331
      ],
      [
        "▁ያላት",
        -10.07806750220078
      ],
      [
        "▁አሕመድ",
        -10.078170451425809
      ],
      [
        "▁በአውሮፓ",
        -10.078276272020071
      ],
      [
        "ተኝነት",
        -10.078355355064136
      ],
      [
        "▁መንገዱ",
        -10.078873034931028
      ],
      [
        "▁ባለመ",
        -10.07891998342356
      ],
      [
        "▁በተሻለ",
        -10.078978900829055
      ],
      [
        "▁ደቀ",
        -10.079695861521609
      ],
      [
        "▁የታወቀ",
        -10.079830004101629
      ],
      [
        "▁እይታ",
        -10.0801907576896
      ],
      [
        "▁ጽሑፎች",
        -10.080223055640944
      ],
      [
        "ላዊ",
        -10.080849054177564
      ],
      [
        "▁ቤታቸው",
        -10.082078182876982
      ],
      [
        "▁ጠበቃ",
        -10.082345607563212
      ],
      [
        "▁ለመቀበል",
        -10.084404558753825
      ],
      [
        "▁ሌሎቹ",
        -10.084578136549622
      ],
      [
        "▁የመሳሰሉ",
        -10.085651923562963
      ],
      [
        "▁ሰብ",
        -10.086759618966065
      ],
      [
        "▁በምርጫ",
        -10.086883649751588
      ],
      [
        "▁ተቃዋሚዎች",
        -10.087475964109071
      ],
      [
        "ታሰሩ",
        -10.08762721137125
      ],
      [
        "▁ቀጥ",
        -10.087646024143073
      ],
      [
        "▁ውሎ",
        -10.087797532599415
      ],
      [
        "ሑ",
        -10.088799874310112
      ],
      [
        "▁ኮሌጅ",
        -10.08881096249592
      ],
      [
        "▁ደህና",
        -10.088827387990456
      ],
      [
        "ገኘው",
        -10.088847258624332
      ],
      [
        "▁እነርሱም",
        -10.088910763519255
      ],
      [
        "ገብ",
        -10.088974402221735
      ],
      [
        "▁የነበራቸው",
        -10.08937177770856
      ],
      [
        "ቱም",
        -10.089504227057809
      ],
      [
        "▁በአል",
        -10.089711635602372
      ],
      [
        "▁ሽብር",
        -10.089929904684688
      ],
      [
        "▁አብዮት",
        -10.090067812925522
      ],
      [
        "▁የሱዳን",
        -10.090769828982422
      ],
      [
        "▁ጨረታ",
        -10.090970086241407
      ],
      [
        "▁ሀያ",
        -10.090974809615195
      ],
      [
        "▁በርግጥ",
        -10.091040427384693
      ],
      [
        "▁ምድብ",
        -10.091226707974233
      ],
      [
        "▁ፈጠራ",
        -10.091819659476768
      ],
      [
        "20",
        -10.092326085852724
      ],
      [
        "▁የኢየሱስ",
        -10.092865567275012
      ],
      [
        "መዋል",
        -10.092878759109384
      ],
      [
        "▁ገዳም",
        -10.092939769104538
      ],
      [
        "▁ዳኛ",
        -10.093412133690142
      ],
      [
        "▁ታላላቅ",
        -10.093413295044988
      ],
      [
        "▁ኢሳት",
        -10.09367200191788
      ],
      [
        "▁ሙሴ",
        -10.094185014364244
      ],
      [
        "▁ጭማሪ",
        -10.095073731254327
      ],
      [
        "▁አብረን",
        -10.095255977766136
      ],
      [
        "▁ከጥቂት",
        -10.09529361037082
      ],
      [
        "▁ወረራ",
        -10.0954126413393
      ],
      [
        "▁አለ።",
        -10.09555078487416
      ],
      [
        "ቀጥል",
        -10.096030830658371
      ],
      [
        "▁2005",
        -10.0960529490153
      ],
      [
        "▁እሳቸው",
        -10.096347701872135
      ],
      [
        "▁አብርሃም",
        -10.096594418529287
      ],
      [
        "▁ሌሊት",
        -10.09662540587901
      ],
      [
        "ሎጂ",
        -10.096816337802204
      ],
      [
        "▁በአደባባይ",
        -10.096912359787485
      ],
      [
        "▁60",
        -10.09741101663382
      ],
      [
        "ጨር",
        -10.097559347306202
      ],
      [
        "▁የሚታየው",
        -10.097710080603283
      ],
      [
        "▁ያጣ",
        -10.097778329897931
      ],
      [
        "ናል፡፡",
        -10.098042304225125
      ],
      [
        "ሱን",
        -10.098053872129457
      ],
      [
        "ባብ",
        -10.098096216177522
      ],
      [
        "22",
        -10.09810409441674
      ],
      [
        "▁በሰላማዊ",
        -10.098330533888896
      ],
      [
        "▁ከቅርብ",
        -10.098732331062877
      ],
      [
        "i",
        -10.0991291617399
      ],
      [
        "▁በአስቸኳይ",
        -10.099900233998826
      ],
      [
        "▁የሚያደርጉ",
        -10.100110530303503
      ],
      [
        "▁ኢትዮጵያዊነት",
        -10.100163582525196
      ],
      [
        "ቆዩ",
        -10.1001637378852
      ],
      [
        "▁አስተማማኝ",
        -10.100548007135323
      ],
      [
        "▁የፖሊስ",
        -10.10091712455595
      ],
      [
        "▁ዓ/ም",
        -10.101410641758282
      ],
      [
        "▁'",
        -10.101526636178846
      ],
      [
        "▁በእርሱ",
        -10.101647254591056
      ],
      [
        "▁ኮሪያ",
        -10.10167188133978
      ],
      [
        "▁በዚያው",
        -10.101713397039267
      ],
      [
        "ሁን",
        -10.101731613172424
      ],
      [
        "▁ስላለው",
        -10.10212073745351
      ],
      [
        "▁እንጠቀማለን",
        -10.102126796171673
      ],
      [
        "▁የራሳቸውን",
        -10.102490712232903
      ],
      [
        "ገናኙ",
        -10.102765129472578
      ],
      [
        "አቶ",
        -10.103039482256886
      ],
      [
        "▁ባወጣው",
        -10.103370172810669
      ],
      [
        "▁ጀመረ",
        -10.103473437836454
      ],
      [
        "▁ሰላምና",
        -10.103520563712957
      ],
      [
        "▁ማህበራት",
        -10.103700059839705
      ],
      [
        "▁ከነበረው",
        -10.103715767382754
      ],
      [
        "▁አዳም",
        -10.103772811564507
      ],
      [
        "▁እንደገለጹት",
        -10.105272053810008
      ],
      [
        "▁አድማ",
        -10.105321781509844
      ],
      [
        "p",
        -10.105553026554848
      ],
      [
        "▁የጸጥታ",
        -10.105897813647088
      ],
      [
        "ንዳ",
        -10.105980384175858
      ],
      [
        "▁አፈር",
        -10.10603794658044
      ],
      [
        "▁እራሱን",
        -10.106104725668173
      ],
      [
        "▁ምእመናን",
        -10.107128564752047
      ],
      [
        "▁ገጽታ",
        -10.107316834868987
      ],
      [
        "▁ቁጣ",
        -10.10746862055242
      ],
      [
        "▁የትግል",
        -10.10784171549929
      ],
      [
        "ፈለጉ",
        -10.10864406890478
      ],
      [
        "▁መለያ",
        -10.109159008040251
      ],
      [
        "ራሉ",
        -10.1093971268278
      ],
      [
        "▁የሁሉም",
        -10.109504607073449
      ],
      [
        "▁ስቃይ",
        -10.109874956332591
      ],
      [
        "▁ተቀ",
        -10.110354448779354
      ],
      [
        "▁አበ",
        -10.11047106266452
      ],
      [
        "▁አይኖርም",
        -10.11060184436638
      ],
      [
        "ዎችና",
        -10.110725822971943
      ],
      [
        "▁“እ",
        -10.111646181594775
      ],
      [
        "▁የመስመር",
        -10.112014919469974
      ],
      [
        "▁እፈልጋለሁ",
        -10.112155472851873
      ],
      [
        "▁የሚታይ",
        -10.112894040409005
      ],
      [
        "▁ለአዲስ",
        -10.113154810545383
      ],
      [
        "▁የገቢ",
        -10.113262369872032
      ],
      [
        "▁ህዝብን",
        -10.113296287090206
      ],
      [
        "▁ቀር",
        -10.113386430476645
      ],
      [
        "ወልድ",
        -10.113891971185252
      ],
      [
        "▁አንዷ",
        -10.114350732073506
      ],
      [
        "▁አያውቅም",
        -10.11435667490048
      ],
      [
        "▁ያውቃል",
        -10.114458915781464
      ],
      [
        "▁ምዕራብ",
        -10.11449261241708
      ],
      [
        "▁ማሳየት",
        -10.114590164455036
      ],
      [
        "▁ያደርጋሉ",
        -10.114635429855785
      ],
      [
        "▁እንድና",
        -10.114824598647514
      ],
      [
        "▁በሰ",
        -10.115584022112424
      ],
      [
        "▁የለኝም",
        -10.116068241815675
      ],
      [
        "▁ሲሆን፤",
        -10.116069557923066
      ],
      [
        "▁ኢትዮ",
        -10.116205271265578
      ],
      [
        "▁ኤምባሲ",
        -10.116216755547654
      ],
      [
        "▁ሀገራችን",
        -10.11648676946968
      ],
      [
        "▁በኢ",
        -10.116559972389496
      ],
      [
        "ለመ",
        -10.11730110099572
      ],
      [
        "▁ይመስል",
        -10.117438820695142
      ],
      [
        "▁(ኤፍ.ቢ.ሲ)",
        -10.117511677842325
      ],
      [
        "▁ጫማ",
        -10.117866149260257
      ],
      [
        "▁ሌላውን",
        -10.118391116751402
      ],
      [
        "ሰባ",
        -10.118577157975864
      ],
      [
        "▁ሀገሪቱ",
        -10.118726354060223
      ],
      [
        "▁እንዲያገኙ",
        -10.118910473116244
      ],
      [
        "ዊው",
        -10.119212309692765
      ],
      [
        "ቃሉ",
        -10.119514697316754
      ],
      [
        "▁እንደማ",
        -10.119782184802364
      ],
      [
        "▁አስረድተዋል",
        -10.119932763724965
      ],
      [
        "▁ተገቢውን",
        -10.12006239611626
      ],
      [
        "▁ሕፃናት",
        -10.12011384942804
      ],
      [
        "በሉ",
        -10.12128072171967
      ],
      [
        "▁ይጠበቃል",
        -10.121342784354496
      ],
      [
        "▁በገንዘብ",
        -10.121406157118978
      ],
      [
        "▁የምርመራ",
        -10.12155908356383
      ],
      [
        "▁እግዚአብሄር",
        -10.121658543737889
      ],
      [
        "▁ወታደር",
        -10.121932135922618
      ],
      [
        "▁እስ",
        -10.12206578280088
      ],
      [
        "▁ጥገና",
        -10.122376473739848
      ],
      [
        "▁አደረጃጀት",
        -10.122586407824455
      ],
      [
        "▁ለመኖር",
        -10.12266518798229
      ],
      [
        "▁ንጉስ",
        -10.122706070315418
      ],
      [
        "ለታል",
        -10.12271162178318
      ],
      [
        "▁የፋይናንስ",
        -10.122776612021353
      ],
      [
        "ሯል",
        -10.122888968127176
      ],
      [
        "ዘጋጅ",
        -10.123064295820017
      ],
      [
        "ሸን",
        -10.123338864828623
      ],
      [
        "▁ለዓለም",
        -10.123536583090743
      ],
      [
        "▁የህወሃት",
        -10.123547413576288
      ],
      [
        "▁የትራንስፖርት",
        -10.12523755934353
      ],
      [
        "▁የሞት",
        -10.12530713194744
      ],
      [
        "▁አርባ",
        -10.125337608095414
      ],
      [
        "▁የሞ",
        -10.125490953309043
      ],
      [
        "▁አትሌት",
        -10.125582317563993
      ],
      [
        "▁ቁም",
        -10.12599856015466
      ],
      [
        "▁እነሱም",
        -10.12636189085723
      ],
      [
        "▁መግዛት",
        -10.127253241055012
      ],
      [
        "▁የሚኖረው",
        -10.127338292883143
      ],
      [
        "ቨር",
        -10.127369010219338
      ],
      [
        "ገናኝ",
        -10.127596402393635
      ],
      [
        "▁ምዝገባ",
        -10.12784804295574
      ],
      [
        "▁አፄ",
        -10.128163077041958
      ],
      [
        "▁በምት",
        -10.128436415561849
      ],
      [
        "▁ሙስሊም",
        -10.128757207714996
      ],
      [
        "ጣራ",
        -10.12904482845746
      ],
      [
        "▁በህይወት",
        -10.129620415977048
      ],
      [
        "▁በምዕራብ",
        -10.129722953869663
      ],
      [
        "▁ባንዲራ",
        -10.129798027064137
      ],
      [
        "▁የምናቀርበው",
        -10.130029849560035
      ],
      [
        "▁የአገልግሎት",
        -10.130349348091464
      ],
      [
        "▁አስታውቀዋል",
        -10.130413730466142
      ],
      [
        "▁ለዘላለም",
        -10.130566325650232
      ],
      [
        "▁ከተባለ",
        -10.130738272938542
      ],
      [
        "▁መነ",
        -10.130888953357504
      ],
      [
        "▁የመሰለ",
        -10.131375725117488
      ],
      [
        "▁ይናገራል",
        -10.131590250460416
      ],
      [
        "▁ይገባል።",
        -10.132203728074453
      ],
      [
        "▁ጥንታዊ",
        -10.132271555802852
      ],
      [
        "▁ግቦች",
        -10.132433220241436
      ],
      [
        "▁በቀዳሚ",
        -10.132795433383532
      ],
      [
        "ፋቸው",
        -10.132839903275114
      ],
      [
        "▁የገባው",
        -10.133416616136955
      ],
      [
        "▁ኮን",
        -10.13353169164726
      ],
      [
        "ብሮ",
        -10.133766723508664
      ],
      [
        "ፍር",
        -10.133809690200197
      ],
      [
        "▁ፖሊሶች",
        -10.133820170432514
      ],
      [
        "▁የሚመራ",
        -10.133899314206914
      ],
      [
        "▁ባላቸው",
        -10.134060429169129
      ],
      [
        "▁ነው::",
        -10.134503820049192
      ],
      [
        "ሳዊ",
        -10.134812905433751
      ],
      [
        "▁ተናግሯል",
        -10.134915949082984
      ],
      [
        "▁ሃላፊነት",
        -10.135123514880409
      ],
      [
        "▁ተገለጸ",
        -10.135137405058092
      ],
      [
        "▁መጠ",
        -10.1351830017567
      ],
      [
        "ረዋል",
        -10.135612229889633
      ],
      [
        "▁ጎራ",
        -10.135901068906444
      ],
      [
        "ራቸውን",
        -10.136096066813336
      ],
      [
        "▁ከዓለም",
        -10.136282970682077
      ],
      [
        "▁ስለማይ",
        -10.136312509019804
      ],
      [
        "▁በበኩሉ",
        -10.136320657884683
      ],
      [
        "▁ዘጠና",
        -10.136420351555325
      ],
      [
        "▁እርምጃዎች",
        -10.136582654697747
      ],
      [
        "▁የሰሜን",
        -10.13694627050138
      ],
      [
        "▁ከመሆኑ",
        -10.137280855008434
      ],
      [
        "▁ባንድ",
        -10.13744274937256
      ],
      [
        "ረስ",
        -10.13747322300086
      ],
      [
        "A",
        -10.138315509557296
      ],
      [
        "▁ቋንቋዎች",
        -10.138788260818815
      ],
      [
        "▁ይገኛል።",
        -10.138840298306611
      ],
      [
        "▁ማምጣት",
        -10.139039557541624
      ],
      [
        "▁ይገባል፡፡",
        -10.139286122496664
      ],
      [
        "▁ፀ",
        -10.1397047079809
      ],
      [
        "▁ተክለ",
        -10.140103752724224
      ],
      [
        "ላክ",
        -10.140111943088794
      ],
      [
        "▁ለማስወገድ",
        -10.140509122297203
      ],
      [
        "▁አጋር",
        -10.14095992509639
      ],
      [
        "▁በጉዳዩ",
        -10.14125863287641
      ],
      [
        "▁ጄኔራል",
        -10.141641177126605
      ],
      [
        "▁መቀነስ",
        -10.142342277890728
      ],
      [
        "መች",
        -10.142371399117252
      ],
      [
        "▁ግብጽ",
        -10.142494751477988
      ],
      [
        "ረገ",
        -10.142593677041416
      ],
      [
        "▁የሚያደርጉት",
        -10.142665954817984
      ],
      [
        "▁በየትኛውም",
        -10.1426977867876
      ],
      [
        "▁የልብ",
        -10.143293565786449
      ],
      [
        "▁በመግባት",
        -10.14344723589052
      ],
      [
        "▁አንዳንዴ",
        -10.144274300959552
      ],
      [
        "ፈለገ",
        -10.144370251672443
      ],
      [
        "ከብር",
        -10.144452453018925
      ],
      [
        "▁ተደርጓል",
        -10.14532735255144
      ],
      [
        "▁አስተዳዳሪ",
        -10.146502884574527
      ],
      [
        "አሁን",
        -10.146757494318548
      ],
      [
        "ከበሩ",
        -10.147625667763918
      ],
      [
        "21",
        -10.1476815897891
      ],
      [
        "▁ዘገባው",
        -10.147701992102172
      ],
      [
        "▁ትዝ",
        -10.147773369519816
      ],
      [
        "ራይ",
        -10.14807670532934
      ],
      [
        "▁የግንባታ",
        -10.148401125232656
      ],
      [
        "▁የቀረበው",
        -10.148576465916264
      ],
      [
        "▁የመኪና",
        -10.14868344472058
      ],
      [
        "ፈት",
        -10.148764169554289
      ],
      [
        "▁ጽህፈት",
        -10.148986602645238
      ],
      [
        "▁የአስተዳደር",
        -10.149030387561805
      ],
      [
        "▁ሌላኛው",
        -10.14905798276615
      ],
      [
        "ሞቱ",
        -10.149264038971776
      ],
      [
        "▁ፍፁም",
        -10.149500043474228
      ],
      [
        "ኹ",
        -10.149512691975104
      ],
      [
        "▁አይችሉም",
        -10.149537525767668
      ],
      [
        "▁የተመሠረተ",
        -10.149737233678607
      ],
      [
        "▁ፊደል",
        -10.149800753574672
      ],
      [
        "ፈጥ",
        -10.150284217546403
      ],
      [
        "▁ሼር",
        -10.150341077476728
      ],
      [
        "▁ነው!",
        -10.150411071431003
      ],
      [
        "▁የሚኖር",
        -10.15056655848911
      ],
      [
        "▁ቆንጆ",
        -10.151042014606524
      ],
      [
        "23",
        -10.151204941170429
      ],
      [
        "▁ሰዓታት",
        -10.15122151868916
      ],
      [
        "▁የተገኘው",
        -10.151825547966387
      ],
      [
        "▁ኤል",
        -10.152982724917171
      ],
      [
        "ርጋ",
        -10.153131048685497
      ],
      [
        "ነዋል",
        -10.153317462314437
      ],
      [
        "▁ስኬታማ",
        -10.15335460778084
      ],
      [
        "▁ይደ",
        -10.15346359596474
      ],
      [
        "▁ጠቀሜታ",
        -10.15381994496796
      ],
      [
        "▁ድንግል",
        -10.153935015044883
      ],
      [
        "▁የኮ",
        -10.154580864835772
      ],
      [
        "▁አስተዳደሩ",
        -10.154701978909417
      ],
      [
        "▁ማስተማር",
        -10.154861393650426
      ],
      [
        "▁አለች",
        -10.156564648303627
      ],
      [
        "▁ቤቱን",
        -10.156787024480714
      ],
      [
        "▁ማለፍ",
        -10.156900743260232
      ],
      [
        "▁መቆጣጠር",
        -10.156976617736008
      ],
      [
        "ጠቀሙ",
        -10.157514244896715
      ],
      [
        "▁አረቢያ",
        -10.157738675262769
      ],
      [
        "▁ማክሰኞ",
        -10.15823574543294
      ],
      [
        "▁2016",
        -10.158561622864353
      ],
      [
        "▁የሙያ",
        -10.159117434073217
      ],
      [
        "▁አያያዝ",
        -10.159265970986102
      ],
      [
        "▁የተዘጋጀ",
        -10.159493269241478
      ],
      [
        "ገፋ",
        -10.159702615637604
      ],
      [
        "13",
        -10.159895141635616
      ],
      [
        "▁ግጭቶች",
        -10.16018367166842
      ],
      [
        "▁ሄደ",
        -10.160595064043711
      ],
      [
        "ሙን",
        -10.160793995738208
      ],
      [
        "▁ኮከብ",
        -10.160918678882162
      ],
      [
        "▁በጤና",
        -10.161645916276706
      ],
      [
        "▁በዝርዝር",
        -10.161667094658284
      ],
      [
        "አገልግሎታችንን",
        -10.161890479945235
      ],
      [
        "ድሮ",
        -10.16204003602532
      ],
      [
        "ኝም",
        -10.162158434525642
      ],
      [
        "ገባው",
        -10.163007562428414
      ],
      [
        "▁የኢንዱስትሪ",
        -10.163198983237494
      ],
      [
        "▁የሚሰጡ",
        -10.163234077156249
      ],
      [
        "▁ሲደርስ",
        -10.16333636733546
      ],
      [
        "▁ባደረገው",
        -10.16361931731828
      ],
      [
        "▁ህብረተሰብ",
        -10.164116079367178
      ],
      [
        "ሰጠ",
        -10.16432482919264
      ],
      [
        "▁ማንኛውንም",
        -10.164477682588489
      ],
      [
        "▁ዜጎችን",
        -10.164911151401723
      ],
      [
        "▁ድንገት",
        -10.165173209033249
      ],
      [
        "ዳዊ",
        -10.165654098738973
      ],
      [
        "▁በመያዝ",
        -10.165786963408548
      ],
      [
        "▁ሰበር",
        -10.166638795360203
      ],
      [
        "▁የእምነት",
        -10.166648761513212
      ],
      [
        "ጫወት",
        -10.166690065789014
      ],
      [
        "50",
        -10.166761862433129
      ],
      [
        "ነዉ",
        -10.167306631954736
      ],
      [
        "▁ጊዜያዊ",
        -10.16751376933694
      ],
      [
        "▁መሞከር",
        -10.167637895818071
      ],
      [
        "▁በደስታ",
        -10.167863739486249
      ],
      [
        "▁ተወካይ",
        -10.167899996994556
      ],
      [
        "▁ተዋ",
        -10.168052248211945
      ],
      [
        "ሰቡ",
        -10.168299199487723
      ],
      [
        "▁መስማት",
        -10.168361232268936
      ],
      [
        "▁ብታ",
        -10.168855264174931
      ],
      [
        "▁እንደነበሩ",
        -10.16894430045802
      ],
      [
        "▁ውበት",
        -10.168987044377472
      ],
      [
        "▁ዓይነቱ",
        -10.169178567563344
      ],
      [
        "▁የፍትህ",
        -10.170045654294656
      ],
      [
        "▁በአማርኛ",
        -10.170505817744193
      ],
      [
        "▁ደቂቃዎች",
        -10.170762648250342
      ],
      [
        "▁በጥንቃቄ",
        -10.17085046267912
      ],
      [
        "▁የምክር",
        -10.171203015143716
      ],
      [
        "ጋራ",
        -10.17191813202716
      ],
      [
        "▁ተጠ",
        -10.172886614245495
      ],
      [
        "▁ተወላጅ",
        -10.173537893989284
      ],
      [
        "ወሩ",
        -10.173550234927124
      ],
      [
        "▁ለመግባት",
        -10.173615655536942
      ],
      [
        "▁በመተባበር",
        -10.174104779303994
      ],
      [
        "▁በመፍጠር",
        -10.174442619723488
      ],
      [
        "ላችን",
        -10.174538444756497
      ],
      [
        "ሳተፍ",
        -10.175243017583826
      ],
      [
        "▁ሰጠ",
        -10.176462680174508
      ],
      [
        "▁ለዘመናት",
        -10.176608807082625
      ],
      [
        "▁አገልግሎቶች",
        -10.177546537731686
      ],
      [
        "ለቀቁ",
        -10.177743438288712
      ],
      [
        "▁እንደሚገኙ",
        -10.177896459730384
      ],
      [
        "▁ያለመ",
        -10.17875311508354
      ],
      [
        "▁ባለሀብቶች",
        -10.178833581418024
      ],
      [
        "▁*",
        -10.17937575177768
      ],
      [
        "ጦች",
        -10.179987005341731
      ],
      [
        "▁በእውነት",
        -10.180200208283631
      ],
      [
        "▁ቀኝ",
        -10.180308329580283
      ],
      [
        "▁ጳጳስ",
        -10.180334795773735
      ],
      [
        "▁ደመቀ",
        -10.180612623641869
      ],
      [
        "÷",
        -10.180766342588962
      ],
      [
        "▁በፍጹም",
        -10.18107638907768
      ],
      [
        "▁የወጣው",
        -10.18117317903426
      ],
      [
        "▁ሰውየው",
        -10.18133689124376
      ],
      [
        "▁ሕብረት",
        -10.181413645754729
      ],
      [
        "ለርስዎ",
        -10.181455251979056
      ],
      [
        "▁ሥፍራ",
        -10.181737612973413
      ],
      [
        "▁የደረሰ",
        -10.181852316075192
      ],
      [
        "▁በመሄድ",
        -10.182251811120022
      ],
      [
        "ወጥ",
        -10.182306783516957
      ],
      [
        "ቅድ",
        -10.182428307963066
      ],
      [
        "▁የመልካም",
        -10.182633882032729
      ],
      [
        "▁እቃ",
        -10.1832956056217
      ],
      [
        "ባባ",
        -10.183433192608057
      ],
      [
        "▁በነፃ",
        -10.184182305251662
      ],
      [
        "▁ይሻላል",
        -10.184262767892667
      ],
      [
        "▁ልጁ",
        -10.184602372139793
      ],
      [
        "▁ሥራው",
        -10.184619486405204
      ],
      [
        "ርድ",
        -10.18493014915876
      ],
      [
        "▁70",
        -10.185168268907528
      ],
      [
        "19",
        -10.185339862883335
      ],
      [
        "▁በተፈጥሮ",
        -10.185556861978432
      ],
      [
        "▁አዝ",
        -10.186009155345763
      ],
      [
        "▁የሕክምና",
        -10.18657253655163
      ],
      [
        "▁ዕጣ",
        -10.187206709046666
      ],
      [
        "▁የወርቅ",
        -10.187633972526376
      ],
      [
        "▁ቱሪዝም",
        -10.18765773100444
      ],
      [
        "▁ሠራተኛ",
        -10.188000054942371
      ],
      [
        "ሷል",
        -10.188031861561498
      ],
      [
        "ቅር",
        -10.188498512646117
      ],
      [
        "▁ሳል",
        -10.18873433924346
      ],
      [
        "▁የተሳሳተ",
        -10.189137144085384
      ],
      [
        "▁ሰብአዊ",
        -10.189518683307911
      ],
      [
        "▁በአካል",
        -10.189611317035183
      ],
      [
        "▁አንደ",
        -10.189621789516442
      ],
      [
        "▁ተወዳዳሪ",
        -10.190097141661369
      ],
      [
        "▁2ኛ",
        -10.190985651784906
      ],
      [
        "ቆመ",
        -10.190987899688135
      ],
      [
        "▁ኦባማ",
        -10.191432549806091
      ],
      [
        "▁ዘወትር",
        -10.191460368975642
      ],
      [
        "ዣ",
        -10.191488559675271
      ],
      [
        "▁የመብት",
        -10.19188298599914
      ],
      [
        "▁የመኖሪያ",
        -10.19245820751168
      ],
      [
        "▁እንደሚቻል",
        -10.192851634200233
      ],
      [
        "▁መቀሌ",
        -10.193163335993708
      ],
      [
        "▁መገንባት",
        -10.19354142445951
      ],
      [
        "ቸዉን",
[...]
